node {
  name: "conv2d_input"
  op: "Placeholder"
  attr {
    key: "dtype"
    value {
      type: DT_FLOAT
    }
  }
  attr {
    key: "shape"
    value {
      shape {
        dim {
          size: -1
        }
        dim {
          size: 2
        }
        dim {
          size: 13
        }
        dim {
          size: 1
        }
      }
    }
  }
}
node {
  name: "conv2d/kernel"
  op: "Const"
  attr {
    key: "dtype"
    value {
      type: DT_FLOAT
    }
  }
  attr {
    key: "value"
    value {
      tensor {
        dtype: DT_FLOAT
        tensor_shape {
          dim {
            size: 3
          }
          dim {
            size: 3
          }
          dim {
            size: 1
          }
          dim {
            size: 64
          }
        }
        tensor_content: "\357\303\372\274\245\334\016\275\025i\267\275 1\250<qb\210=\253\332\231=Q\347\305=/Q\312=\302l\204=\337\244\255\275\201sx=\252\276\301\275\"\250\357\272\224[\264\275\2754\037=\200NU=6\315!\275}\323\217\275^\005\257=\225?\301\275\320/-=u\343\217\275N\240\263\2739\206,=\335\336\010;E\027v=\002\304\035=JG*\275\326\367N=m\260\242\275s\201\314\275\014B\270\275Cr\217=\2009n\275\\\317\253\275\325\206u<\376\235\205=C`\214=t\0217\275\013\201\260\275\037D\337\272\2667K\275\375\024\037\275\010\267B\275\021\365\301<\035p\"\275\320\336\321\273\361\2059\274\231\237(\275\307c\213=\005\325k\274b\332#\274\250\211\256=\237-\326;a\022\023=W\335\014\275s\310,=\305\262\213=\360\001u\275\027\317\256\273hX\323\273\266:8\275@\264\220<s\274.\275R\305k\275\'S\200;}\302\251<\343\221U\275\0375\261\274\007~\314=\246\311v<.j^<r\322\323;\353\262\032\275*P\237\274\323k\314\275v\262\253\275\233\025\207=(b#=\212mc<7\351\'=l\270\276\274B?\254\275\343;\267=\374\337\t=I\017-=\355~\250\2745\330\244;\336t\314\275&\303\351<d\006\244\275\036\n\272= \364`\275\"R\331;]\326,=\221G\217=\203|z;\3359\305\275\236U\235\275t\324\247=\232\026\251=\3650\006=Fd\307<]\225\223\275\036k\007=\203H\033=\227\262\010\275\000>\211\275\325\010$<\277\203\023\275\300\025\303\275\0341\255=\204\023\013=H9`=_\366D=|\341\320\274\265\032\310=\027\224I\275\247\321\233\275F\310\025=H\267\254\274\356\207N<[}\245\273\227\312\314;\301\233<=H\234\202=\272\254K=\tkR\275\340#\346\270\352D0\275h\351\221\275\334\224\005=\2521\354\274\270/&=Nt\241\275k\n\301\275.\234\200\275 :\273=\332\347:=\221C\307=\357\321\203\275[P\257\275t\252\010\275\356\232\335\274\013@X\275\033\2577<\030bT\275\340\256\220\275|\356\331\2743B\302\275 \r\314\275R(A\275\273\rX\275\347\346\234\275\373\361_\275x|\233=\005\314\263=H\314#\275F\257$\275,P\005=E\333\314\275\305\224\'\274\232\223c<\235\274\215\274\237j\225\275\375\271\265\275\256H|\275\232\347K\275\315\257\007\274\026\267\177\274]\260;=-{\021\274\273\017\247\275\211\234\207=[^\204=\300Gd\275\006}\204=b\254\210\275i,7=\037\225S<\271!\231\275\344\270\n=)\306\255\275\005=\024\275A\224I\275\243\253\025=\313-\214\275\253tb\275\274st\275F/;=\224\342,=\"\037\201=c\374\200\274\333\342\307=t8\214\275\247\230{;\372Y\307\272\006\'p=\207\355\271=YO\262=\217ln\275\221\210H=\350\013\272=u6y\275\302\360I\275\005\005\272=\010q\242\275\210\026\271=F_\246=\232u\316=%\270\265=9I0\275\003\214\233=\354DX\274\3074\315=7\300\235\275\347\276\305=\233+&=-\330\217\274V\000y\275oH\376\274\276-\276=\200m\263<\301C\261\275\343\007\246\274\351\341\275=e\203/;\367\223-\275\t45=\t|\223\273\247\352\276\275\032\204V=\362\321\204<\240j<=\332W\210\275\314\304\230<\026\207\200\273&#\002=38\233\275\234\303\360\274\023\'\215\275P\"w=\366\0253=\023\021c\275\250\360-\275\004\033\202\275>\037z\275\025\0317\275\260\221\226=3\361\226\275u\035M=\323H\032=\356Rl=\327\\\227==5\265\275\260\376\241<\006\r\300=\026\223\244\275\201k\320<\227W\271\274\\\304\205<\364\303Y\274\3354\206\275\226\216\010\274\3073\224=\013\225Z\275D\331t\275?~\372<\215<\215<\357\025k\274\2711:<\313r:\275\361\316\271=+\236\217\275-\0211\274$\373$\275&\353\306\275\332\227\312=l\277\204\275\221\025O=\177\252\243\275\345r\224<\324\230\000\273\257\232u=\001+\301=\323j\312\275\017\324q=<nh=\n\350\025=\365\377\335\274a\303^\275\2425Q=\373CY\275\224\216\247\275^\330\235\275\261kq=%\027\016\272\240n\205<\307\022o=Z\245\311=\300|F=\223s\221\275\237Z\230\275i\354\257\275,\013\027<\227l\227=\027\203|\275\363\037n<9\244\255\275\024X\254\274\000d\216=\177\250\230=\337\\y\275\222R\331\274\304\374\211=\265\221\241<d\333\204=p\033\343\274CCL\275u\365\310\275\360<\032=\220\207\260=9\t\365\274\"fC=\347\361-=%\177d\275\255A@=\272\255\350<\020\030v\275\300Fq=\343m\232=\215b\t\272r\251R\275^\036\301=\377\364\224\274\004\030h;\307.k\275T]\236=\002\341\223;\261\241E=\336A\311=\351}\343<u\321\357;\347\214_\275^0t=?\035\240=r\233\r\275#\230\025=\336}\203=`KF=>@\203\275)>\255\275\374J\031:\306\010\001\275\017\374\221=\306*m\275\313\241]\274\241\312Y=\254\327\277\275Ez\241\2756\240X\2757y\372<#\010\247\275\347|\245\274\347wR=)`t=;\366\331\274\226\221\243=g\264\244<\n2\243=\307?\032=\21353<\345\350\252=}\317\247\275\270P6=\361g\202\275+T\324\274x\203\235=\333L\272=\211e\216=\326D\371\272\312\210~=\032\033?\274~\352\217=x\211=<\241\"\334\274\235\254\262;\236|Q\275\337Y$\274U\213\201\275\203\007H\272\331\340\227=\343\261\237<\005\007\n=\227\313\316\275N\257v=\'\327\371<\305\017\202=\"\233\210\275U\302\007=e&G=\210\223\241==Z\235=%z\326\274\024b&\2751s\247=\252\370\035=\323{\241\274\275&\324<4_/\275\231\003\205\275\177(\210\275)\242\265=\253Q\207\273P\027a\275E\271#=\304;A\275\337$\276\274\373\235\242\275<\243\235<\324\026\312\275\230\356\026\275\210\260\223=\257hW\275eM\257=\313\263I\274\325\236\200=\261*2\275g9\241\275\365\032\'\2749\276Z=\305\235\257=PY;\274\254\246m=\357b\233=\245\005I=\233\303y\275\004\'\017=\266\212\222\275\345:\002\275\021\017\251=\217 \217;E\374\025=&x\241\272\217.\253=\004\302\270\274\377\274\250\275\210|\367\274\314 \375\274\213\n(\275\'\234\242<j\354L=@1H\275\024\243k=y)K=Y\365\322<qY!;\347\366\250\275\246\226\263;\221\033U\275\231/\036\2754\271\234\275OVl\275\347\356\024\275;\004\002\275\261o\250\275/w\035\275\000^\233\275\265\225\024\273Hp\210<\3134~=\016\223\223\275\033\177\313=2\214\255\273\357M\314\274\210\210\206\275\351\275\247=6 U\274/L\237=\031\023[\2752\223\226=\343\256\223\275EI\214=\034>F<\014<\226\275\003\r\023\275L\260\257=\3774\260\275v\225\206\274\251G[\275~v;\275\251nV=Kp\262\275>\r\322<\225\266\304=\"\t\330\275=\266\272=\213u\316<%\277\356<\347-\010=\'};=Q4\r\275\367\353\031\2752{\277\275\232\031\230=\311F9=D\325\251=\232\345&<\014\211\210\275J\214\262=Go\246<\007_r\275\032b\270\275\311\"$\275\376\236\215=\r\364\202\275_\356\230\275\204\262\275=\205\n?\275\3779\323;Ty>=\'<\325;\377b9\2749\377\031=\325\003\222\275\212\273\303=\231\225\271\274\342(\013\2755!G;\331\277h<(\002\005<\202\245\177\274v\355\363\273\340!\373\271\300?Y\275H\251\220<\000\212\204\275U\327\230\275\325X\243\275\013\301\275\275X\272\227=\350\'\362<5\306\211\275G0\\;\241\322\202\275`\333+=\306\\\274=\033\000\300=\002;\227=\246^\025=[\365\025\274\211\205\264\274\032\240\304=\374v\276=o\253\037\275R:3\275\236\274\311\275\353VE\275SE@=\331\341}\274\360\373\356\272\030L&\275\272\323\005<\250\253\257=R\205\310=\036}\225=\010y\216=\303\354\267\275\341s\304=\204s\251\274P\310\265=\000\321r\274)\014\255=\276X^\2755\352\267\275\0077\321<"
      }
    }
  }
}
node {
  name: "conv2d/bias"
  op: "Const"
  attr {
    key: "dtype"
    value {
      type: DT_FLOAT
    }
  }
  attr {
    key: "value"
    value {
      tensor {
        dtype: DT_FLOAT
        tensor_shape {
          dim {
            size: 64
          }
        }
        tensor_content: "3W ;\242\376I:\213\206?\273r\241p\273\255\276\241\271\364h\361;\307\332L\271\n#\221\272\024Z\221;\310a\001\272\207H=;\327\250\240:c\216\304:d:\307\272\250\331\247\273\303P\205:\251[\343\272\276M\241\272\014\252\334\272\237^\035\273ft\215\273\353\031\177;\250328\237\310\214\273v\002w\272\021l\014:#\303\033;\365\332\206\273\372\373\226\273b\300\005;SR\250:\025AZ\272\221\213\022\2739\007\242:\306W1\272\260\356\t\273\224\312\233\273\217\276,;zO\005;\223\302H;4\354\253\273\214\026};\206j\3628\177\037\023:2\307\024;\314\374T\273\256\270\270;}\320\022\273\317\014s\273y\\\223\272\202\21719\"\177\251\273\207\004\351\272K\326i\272\321*\226;\031\236_;\220b\232;%\017\360:\330\364\007:\206p@\272C\363\201:\267%Z\273i\331\272\272\335\035\257\272"
      }
    }
  }
}
node {
  name: "conv2d/Conv2D/ReadVariableOp"
  op: "Identity"
  input: "conv2d/kernel"
  attr {
    key: "T"
    value {
      type: DT_FLOAT
    }
  }
}
node {
  name: "conv2d/Conv2D"
  op: "Conv2D"
  input: "conv2d_input"
  input: "conv2d/Conv2D/ReadVariableOp"
  attr {
    key: "T"
    value {
      type: DT_FLOAT
    }
  }
  attr {
    key: "data_format"
    value {
      s: "NHWC"
    }
  }
  attr {
    key: "dilations"
    value {
      list {
        i: 1
        i: 1
        i: 1
        i: 1
      }
    }
  }
  attr {
    key: "explicit_paddings"
    value {
      list {
      }
    }
  }
  attr {
    key: "padding"
    value {
      s: "SAME"
    }
  }
  attr {
    key: "strides"
    value {
      list {
        i: 1
        i: 1
        i: 1
        i: 1
      }
    }
  }
  attr {
    key: "use_cudnn_on_gpu"
    value {
      b: true
    }
  }
}
node {
  name: "conv2d/BiasAdd/ReadVariableOp"
  op: "Identity"
  input: "conv2d/bias"
  attr {
    key: "T"
    value {
      type: DT_FLOAT
    }
  }
}
node {
  name: "conv2d/BiasAdd"
  op: "BiasAdd"
  input: "conv2d/Conv2D"
  input: "conv2d/BiasAdd/ReadVariableOp"
  attr {
    key: "T"
    value {
      type: DT_FLOAT
    }
  }
  attr {
    key: "data_format"
    value {
      s: "NHWC"
    }
  }
}
node {
  name: "conv2d/Relu"
  op: "Relu"
  input: "conv2d/BiasAdd"
  attr {
    key: "T"
    value {
      type: DT_FLOAT
    }
  }
}
node {
  name: "batch_normalization/gamma"
  op: "Const"
  attr {
    key: "dtype"
    value {
      type: DT_FLOAT
    }
  }
  attr {
    key: "value"
    value {
      tensor {
        dtype: DT_FLOAT
        tensor_shape {
          dim {
            size: 64
          }
        }
        tensor_content: "\3433\200?\025*\200?\225\001\200?#\036\200?\315/\200?\234\377~?u\307\177?dB\177?\331\346~?\256c\177?\241(\200?\354c\177?Ro\200?\004\013\177?\'J\200?\020\236\177?\3222\200?6&\200?\340\001\200?\335?\200?\347>\200?\0016\200?wG\200?\205\016\200?,\233\177?\nA\200?\346J\200?\243N\177?}\036\200?5/\200?\036\244\177?\312\324\177?\371\033\200?\305/\177?v\026\200?\230\212\177?i\203\200?:\001\200?\343\000\200?\007\262\177?\300>\200?N\301\177?\330@\200?&\315\177?\271`\177?0\'\200?!t~?\302\005\200?K\321\177?\263H\200?Q\240\177?\363\343\177?3\363\177?X\'\177?\256\260\177?\014I\200?\350\226\177?R\004\200?\221\345\177?.\321\177?\314\256\177?\314]\200?\017B\200?\302\030\200?"
      }
    }
  }
}
node {
  name: "batch_normalization/beta"
  op: "Const"
  attr {
    key: "dtype"
    value {
      type: DT_FLOAT
    }
  }
  attr {
    key: "value"
    value {
      tensor {
        dtype: DT_FLOAT
        tensor_shape {
          dim {
            size: 64
          }
        }
        tensor_content: "\023\240N;\352\251n9\246\2626\273\022J|\273\223\026\346\272\265I{;\373\226.9\376\202\3339\r\003\024;LC\223:i\n\233\271\264\344#;\274\263\010;b\t\214\273GO\227\273\205\007);\233t\014\273\341#\203\272bQZ\2738\267:\2733lU\273\211\004\225;\262\321\341\267\027G\250\273\t~\204\272\267\231\016:d\321\034\273\234\322\347\272R\364\327\272\304\030\025;\267\361\223:\223\230\321:\354\276\006\273-\255\204:7\206<;\315<0\273\302!\347\273`\030z;}\262C;\262\177\201;\023?)\273\r\370s;|K^:\236\315\2409\352p\325\272\023\0106\273;\353\225;CH\275\272\267UU\273\010\204_\273OJ\204;\354\277\271\273M\243 \273\251\272P\273R\004\225;\266d\004;\237^\252;|=o;\001rT\273^\317):6\211\203:E\330\031\273\020G\2259V\215E\270"
      }
    }
  }
}
node {
  name: "batch_normalization/moving_mean"
  op: "Const"
  attr {
    key: "dtype"
    value {
      type: DT_FLOAT
    }
  }
  attr {
    key: "value"
    value {
      tensor {
        dtype: DT_FLOAT
        tensor_shape {
          dim {
            size: 64
          }
        }
        tensor_content: "\354\025\217?\020\352&@1w\003@\001c\301?\263wY?\214\336\346?\261\242\004@\236c\037@\202V\240?.\330=@\263\266>@\033\325\004@A\231\025?\n&V@\372k\345?N\340\002@\311\362\323??\273x@\326\2562@\222\353\014@~Z7@\024\353\027@\020\374\330?\336#\272?_\3202@\006\004\236?\324-g?\017A\037@\346\3338@\336\346#@\304D\364?`\311\005@x*\255?V:\001@[\217+@\377x\320?\277\271\373?h\014\356?\325K\313?\2753=?K\304\271?O2\334?7\232\223?}\207\311?\030\250\264?\350\370\340?\220\016\n@\202\327\'@\251\027\010@\\e&@\366\013\010@\"\257\266?\031\004\016@0\351\225?3i\001@f[\321?-\027\"@\014=\323?V\313(@C\335\206?\037X\035@q\003\314?r\352\002@\235NE@"
      }
    }
  }
}
node {
  name: "batch_normalization/moving_variance"
  op: "Const"
  attr {
    key: "dtype"
    value {
      type: DT_FLOAT
    }
  }
  attr {
    key: "value"
    value {
      tensor {
        dtype: DT_FLOAT
        tensor_shape {
          dim {
            size: 64
          }
        }
        tensor_content: "\271\037\376@\310c\'B\322%0B*\036\252AKEd@\024\364OA\274Y\206A0,\245A\363J\034At\325\216BI\3605B\344\r\004B\365?\"@\365U{B\004\303\346A\313\226kAA\266\356@\276\353\252Bb~\274At\033MB\250\2604B\375\331\361Ai\3308A\313\361\216Ac\253FB\220\304\305@\2725\002A\332\324mB i\221A\317\340/B\035^\334A\324\314\213Bb\320\244A\024Q\333AW\317bB\014X\202A\205\006\032B\020t\016B\027\276\220A?;G@\000\013\033A\376r\230A\020\013\240AtA\207A\305\263&A\231\224\"B\250\211/B\017N\212B\222p*BC\213\215A\3464\204A\3454\034A\014y\371A\035\336\014A\261\177\023B\341\352\324A~\256\247Ar\361wA=\376\214AF/0@\216\266\224A.\034\345@\207S#BvX\330B"
      }
    }
  }
}
node {
  name: "keras_learning_phase/input"
  op: "Const"
  attr {
    key: "dtype"
    value {
      type: DT_BOOL
    }
  }
  attr {
    key: "value"
    value {
      tensor {
        dtype: DT_BOOL
        tensor_shape {
        }
        bool_val: false
      }
    }
  }
}
node {
  name: "keras_learning_phase"
  op: "PlaceholderWithDefault"
  input: "keras_learning_phase/input"
  attr {
    key: "dtype"
    value {
      type: DT_BOOL
    }
  }
  attr {
    key: "shape"
    value {
      shape {
      }
    }
  }
}
node {
  name: "batch_normalization/cond/Switch"
  op: "Switch"
  input: "keras_learning_phase"
  input: "keras_learning_phase"
  attr {
    key: "T"
    value {
      type: DT_BOOL
    }
  }
}
node {
  name: "batch_normalization/cond/switch_t"
  op: "Identity"
  input: "batch_normalization/cond/Switch:1"
  attr {
    key: "T"
    value {
      type: DT_BOOL
    }
  }
}
node {
  name: "batch_normalization/cond/pred_id"
  op: "Identity"
  input: "keras_learning_phase"
  attr {
    key: "T"
    value {
      type: DT_BOOL
    }
  }
}
node {
  name: "batch_normalization/cond/ReadVariableOp"
  op: "Identity"
  input: "batch_normalization/cond/ReadVariableOp/Switch:1"
  attr {
    key: "T"
    value {
      type: DT_FLOAT
    }
  }
}
node {
  name: "batch_normalization/cond/ReadVariableOp/Switch"
  op: "Switch"
  input: "batch_normalization/gamma"
  input: "batch_normalization/cond/pred_id"
  attr {
    key: "T"
    value {
      type: DT_FLOAT
    }
  }
  attr {
    key: "_class"
    value {
      list {
        s: "loc:@batch_normalization/gamma"
      }
    }
  }
}
node {
  name: "batch_normalization/cond/ReadVariableOp_1"
  op: "Identity"
  input: "batch_normalization/cond/ReadVariableOp_1/Switch:1"
  attr {
    key: "T"
    value {
      type: DT_FLOAT
    }
  }
}
node {
  name: "batch_normalization/cond/ReadVariableOp_1/Switch"
  op: "Switch"
  input: "batch_normalization/beta"
  input: "batch_normalization/cond/pred_id"
  attr {
    key: "T"
    value {
      type: DT_FLOAT
    }
  }
  attr {
    key: "_class"
    value {
      list {
        s: "loc:@batch_normalization/beta"
      }
    }
  }
}
node {
  name: "batch_normalization/cond/Const"
  op: "Const"
  input: "^batch_normalization/cond/switch_t"
  attr {
    key: "dtype"
    value {
      type: DT_FLOAT
    }
  }
  attr {
    key: "value"
    value {
      tensor {
        dtype: DT_FLOAT
        tensor_shape {
          dim {
          }
        }
      }
    }
  }
}
node {
  name: "batch_normalization/cond/Const_1"
  op: "Const"
  input: "^batch_normalization/cond/switch_t"
  attr {
    key: "dtype"
    value {
      type: DT_FLOAT
    }
  }
  attr {
    key: "value"
    value {
      tensor {
        dtype: DT_FLOAT
        tensor_shape {
          dim {
          }
        }
      }
    }
  }
}
node {
  name: "batch_normalization/cond/FusedBatchNormV3"
  op: "FusedBatchNormV3"
  input: "batch_normalization/cond/FusedBatchNormV3/Switch:1"
  input: "batch_normalization/cond/ReadVariableOp"
  input: "batch_normalization/cond/ReadVariableOp_1"
  input: "batch_normalization/cond/Const"
  input: "batch_normalization/cond/Const_1"
  attr {
    key: "T"
    value {
      type: DT_FLOAT
    }
  }
  attr {
    key: "U"
    value {
      type: DT_FLOAT
    }
  }
  attr {
    key: "data_format"
    value {
      s: "NHWC"
    }
  }
  attr {
    key: "epsilon"
    value {
      f: 0.0010000000474974513
    }
  }
  attr {
    key: "is_training"
    value {
      b: true
    }
  }
}
node {
  name: "batch_normalization/cond/FusedBatchNormV3/Switch"
  op: "Switch"
  input: "conv2d/Relu"
  input: "batch_normalization/cond/pred_id"
  attr {
    key: "T"
    value {
      type: DT_FLOAT
    }
  }
  attr {
    key: "_class"
    value {
      list {
        s: "loc:@conv2d/Relu"
      }
    }
  }
}
node {
  name: "batch_normalization/cond/ReadVariableOp_2"
  op: "Identity"
  input: "batch_normalization/cond/ReadVariableOp_2/Switch"
  attr {
    key: "T"
    value {
      type: DT_FLOAT
    }
  }
}
node {
  name: "batch_normalization/cond/ReadVariableOp_2/Switch"
  op: "Switch"
  input: "batch_normalization/gamma"
  input: "batch_normalization/cond/pred_id"
  attr {
    key: "T"
    value {
      type: DT_FLOAT
    }
  }
  attr {
    key: "_class"
    value {
      list {
        s: "loc:@batch_normalization/gamma"
      }
    }
  }
}
node {
  name: "batch_normalization/cond/ReadVariableOp_3"
  op: "Identity"
  input: "batch_normalization/cond/ReadVariableOp_3/Switch"
  attr {
    key: "T"
    value {
      type: DT_FLOAT
    }
  }
}
node {
  name: "batch_normalization/cond/ReadVariableOp_3/Switch"
  op: "Switch"
  input: "batch_normalization/beta"
  input: "batch_normalization/cond/pred_id"
  attr {
    key: "T"
    value {
      type: DT_FLOAT
    }
  }
  attr {
    key: "_class"
    value {
      list {
        s: "loc:@batch_normalization/beta"
      }
    }
  }
}
node {
  name: "batch_normalization/cond/FusedBatchNormV3_1/ReadVariableOp"
  op: "Identity"
  input: "batch_normalization/cond/FusedBatchNormV3_1/ReadVariableOp/Switch"
  attr {
    key: "T"
    value {
      type: DT_FLOAT
    }
  }
}
node {
  name: "batch_normalization/cond/FusedBatchNormV3_1/ReadVariableOp/Switch"
  op: "Switch"
  input: "batch_normalization/moving_mean"
  input: "batch_normalization/cond/pred_id"
  attr {
    key: "T"
    value {
      type: DT_FLOAT
    }
  }
  attr {
    key: "_class"
    value {
      list {
        s: "loc:@batch_normalization/moving_mean"
      }
    }
  }
}
node {
  name: "batch_normalization/cond/FusedBatchNormV3_1/ReadVariableOp_1"
  op: "Identity"
  input: "batch_normalization/cond/FusedBatchNormV3_1/ReadVariableOp_1/Switch"
  attr {
    key: "T"
    value {
      type: DT_FLOAT
    }
  }
}
node {
  name: "batch_normalization/cond/FusedBatchNormV3_1/ReadVariableOp_1/Switch"
  op: "Switch"
  input: "batch_normalization/moving_variance"
  input: "batch_normalization/cond/pred_id"
  attr {
    key: "T"
    value {
      type: DT_FLOAT
    }
  }
  attr {
    key: "_class"
    value {
      list {
        s: "loc:@batch_normalization/moving_variance"
      }
    }
  }
}
node {
  name: "batch_normalization/cond/FusedBatchNormV3_1"
  op: "FusedBatchNormV3"
  input: "batch_normalization/cond/FusedBatchNormV3_1/Switch"
  input: "batch_normalization/cond/ReadVariableOp_2"
  input: "batch_normalization/cond/ReadVariableOp_3"
  input: "batch_normalization/cond/FusedBatchNormV3_1/ReadVariableOp"
  input: "batch_normalization/cond/FusedBatchNormV3_1/ReadVariableOp_1"
  attr {
    key: "T"
    value {
      type: DT_FLOAT
    }
  }
  attr {
    key: "U"
    value {
      type: DT_FLOAT
    }
  }
  attr {
    key: "data_format"
    value {
      s: "NHWC"
    }
  }
  attr {
    key: "epsilon"
    value {
      f: 0.0010000000474974513
    }
  }
  attr {
    key: "is_training"
    value {
      b: false
    }
  }
}
node {
  name: "batch_normalization/cond/FusedBatchNormV3_1/Switch"
  op: "Switch"
  input: "conv2d/Relu"
  input: "batch_normalization/cond/pred_id"
  attr {
    key: "T"
    value {
      type: DT_FLOAT
    }
  }
  attr {
    key: "_class"
    value {
      list {
        s: "loc:@conv2d/Relu"
      }
    }
  }
}
node {
  name: "batch_normalization/cond/Merge"
  op: "Merge"
  input: "batch_normalization/cond/FusedBatchNormV3_1"
  input: "batch_normalization/cond/FusedBatchNormV3"
  attr {
    key: "N"
    value {
      i: 2
    }
  }
  attr {
    key: "T"
    value {
      type: DT_FLOAT
    }
  }
}
node {
  name: "max_pooling2d/MaxPool"
  op: "MaxPool"
  input: "batch_normalization/cond/Merge"
  attr {
    key: "T"
    value {
      type: DT_FLOAT
    }
  }
  attr {
    key: "data_format"
    value {
      s: "NHWC"
    }
  }
  attr {
    key: "ksize"
    value {
      list {
        i: 1
        i: 3
        i: 3
        i: 1
      }
    }
  }
  attr {
    key: "padding"
    value {
      s: "SAME"
    }
  }
  attr {
    key: "strides"
    value {
      list {
        i: 1
        i: 2
        i: 2
        i: 1
      }
    }
  }
}
node {
  name: "conv2d_1/kernel"
  op: "Const"
  attr {
    key: "dtype"
    value {
      type: DT_FLOAT
    }
  }
  attr {
    key: "value"
    value {
      tensor {
        dtype: DT_FLOAT
        tensor_shape {
          dim {
            size: 3
          }
          dim {
            size: 3
          }
          dim {
            size: 64
          }
          dim {
            size: 32
          }
        }
        tensor_content: "\267E\3113\2665=\263\277eB=\001\031`<\251\235I=\035\307\224<\334z\024\275\221\333\203\275\363f0\275\231\353\371<3U\345\271\036\375\304\274h\027\013=\240\301m2#\355\354<\023\303\3563W\367\316;~9(=\004\211\021\275\214$\2328\307\232J=\331\213\203\275]\205g=\364\370E\273G\243\306:\345\364]=\221\n\201\275\341\347\270\273.\272\264<\276\254\0024U,w=\252\005\366<\307Z5\275P\017c\275NF\235<\363\004?<\0168o\263A~{\275\327l\2231\327\371T<\221\021\263\272\2013a=\301\206\372;\300\271\2018\323N7= \367D=8j+\275)\340:\275 \000 \275\262\207]9P\215\276<V\315\232\274\234\300\343\273_6\210<8\211m\274\206\177z\275\317E\207\273%\022\210<\223\270\030=\\.5<\217\255\'\274\350EW=>Z\277<\260\245\340\266\252\020L\275J!\223;\014q\370:\302\222w=\263\225[\272#b\334<^v\241\274gRA\275\253\234\002=\016I\022<\221\203\275\273\226?\200\275\243mQ\273(\0160=\366\216_=\006\360\216\274\014\235\010\273\355\3150=\"\323\342\270\345\301\014:y\272p:}\272\202=$\265\334\274z\351\034=\014\351\005=\032\354\331\274-\205\022\275*+\215\274X\353\366;\272>\025=9\371\252\273\323\335\003\275\210\246\363\274\221`l;\200\206t0\317q\326\274n \300<\2734e=O>A\275\226\356\325\274Z&\032;\301H\251\264FDz\275\"1\330<\207\237!=\361\334\003=\321\355\202\273I\236\'\275\330F\017\274O\360\215\274\201\320==yW[=\274\340\033=\302*\202\275\256\236#\263\352\022\231;{\362\3679Gr\3112\200\310\030=Q\006N\275,\242\013=\370\005\267\274P\010\020=\326|\3359\256\3759=\213\241(\2740\013\3114~\201\235;\316@\3072\374Bs=4\320\363<\306\207*\275\2158/\275\205|\235<\035\025\317\274W\267H\271\261\2100=\362\007\3424!d\341<\351ks<\026\2451=\233\013\026\274CwK=6\330\363\274\243W\3662\017\\\232:\007\300\246<X!\233\2625\375\355\271/3\257\274\332U+=\004\245\030=\247\274!<\014\371#<\362~\023=X\ni\274q\200\035;:\220\227\274a\241\352\274K\247\020=\216\211)\275$k\004=(\350\274<(\372*=\200&|=\331s\024=\226\262\027<\354\007\2755\"\335\037\275+\265D\275\354t\311\274\217\277\363;\177\020\255<\322,b=\260\371\r5\223\357M\275q\242q\274o\252N\275\035\211L<\t\361\203<7\t\2765o\364.<\226\234C<,\323\200=\357v\000\266\377\rj=w\377,\273\303y@=Ar\215\263\267\r[\275\276\232\237\265\354\350#=\215\036}<\204#l\275}5\332;A\031G=\356\311a=\363S\036\274\254\361\201;Z\300\352\273\324\200\327<JS\014;0\252I<\265\026\2622\221\244\211\273\252\321\027\266\371A\336<\234\0164\275\2544\305<~\344\264\266\033\204\211\274\301\266(\275\023\252\000\275\226\274\036\274\366\356F\273\220\216F\274f\035\037\275\225B\030=\031L\205<\273S\253<\2712^:\177}t\275m\326\245</\327_=}\224\250\274(\263\026;\213\274\215564\035<\263\t3\275\332\311U\275\261\377\360\274\370g\004<\212\373]\275\200,\242\274\005Sw\274\304>\210<\300\210\021\275\273\215\275:0O\010=\265\t\376<\300\362\200;\276\022\227\274\n\327\303;\002\341\006\2757>!\275\037\336\025\266\223r\311<\220\241x\275\031k=\275\370\022\001\275\255\235\206<L\204C\275 \340\370<\331\247E\273_E\303:3\005\035\275<\266m\275\371U =\257\364\216\271I\344\035\271KU\223<}\235\273\274\264M\222;v%\005\274\212),\274\300\r\005<\345\200\263\274\341\207A\274\241\276\235\27419\361\274\331a\207\264\256Qz\275t\027\337\261I\234\213<\305\177:=\203/\364\273\001\237@\275\036\232\213<s\270d;Tj/\274\224D\000\273\210b\233<\203N\003=W3 \275\311\243#<\350P\301\273\035\023\027=\211\230/<Hu\200=\020\003M=\356\221\032=\321*\0333\201\351\206<\2376\3443*\2726\275\243\274\373<\027r&\275\232\222\253\273\234\267\237<\354?h=;F5\275\026v6=\232h\245\274\026\0362\275/\262\2537j\225b\275&$\321<\201\004\177<f\305j=\235\220\252<\020\254\301\274\234BE\264DI{;\"\363\224\274>t\024=\360\207\330;P\230\027\274,`a=\000[\313\273\010\"\300:\213\213\322;\001\243\343\274\352\010\325\274\3777d5\255\360a=[\010\355\274=xF=\272m\357<\250\033^\275\356B&\275P\ts<n\2273=\322\273\357\274_\321\017;?+\n=\305ju=\035J+=#\315\250\274\242Me\275P\221\025=9R\340<\010qi\275w\315\243\274\363O\033\275\245\211s;\310<\225\271\245)E\275\254\311\347:\177\336K=>U\226\274\302>\003=\264\027\026\275\211\352f\274\303\366\2737)\026\2677\324A\335:\227\202\260\273\024iG=_\320Y\273\315N\0363{\306(=\254Z\3142+\0269\272\014\210v<X\366`=\324\213\220\2674\020\260<\375)w\275\030Na\275RT4\275\264\033 \274\021\232\210\274i\342\275<On!\275\033\211s\2755\036\303\274\366\273\255\273%t\031\275\027\323$=\036B\355<\223%f\275lh\016\265\276\217\033\275M\027\250<t\256m\275\340^\346<\324o\376\273_o?<J\346X\275P\374\370\274\274W\206<\275L*=\266\317\0314m\\C\2750OY=ts%=Ou\255\274\311^\211\274>\262\0064\341\274\320;\326\2137;\252DO\275\261M\323;\023\307R=\227\016\177\275\027\375\303:\213=A=(\316\3033@7\022<uw\216;\361\243:=\177M\0274L\232\317<\031\373\031;\337\231M=\334c\2072\252]\363;\031U\203=\001\245\024=aQ[\274\022J\372<d@\r<\250\216\203=\034Y\0052\t\000\203\275\023`\t=\255ky=\357\374\361\274\331\250M\275\2516Y\275\330\314\251\273\3324\023\275\030\326\241\274\210\331\200=* \020\266\356\255R<\375\243\206;\267\312#\275\035d%=\360\223D\274:\302\007\275\340\206.\272\336\264x\275\207\322\363\274\231\266^\275\r\3334\275\211DN<\342\3214\275\254\004|=\031t\211<\220t\202=\351R\246\271\364\034\002\270\240\020q=M\341\262\271\336\214\233\273Z\2007<\323\376\003=\0276\020=\354y\341\265C\217\323\274\266\rO=\241:E\275\350\300\001\275\022HL\274\323\324-=:\314W=\210\024\325<\001\017\357\274\306a\206\274\254\330\263\273^d\035\275\204\230^=zRt;~d53CAd<\242\274\313<\304o\267<8\301|=\336\024\375<1\036j\275\021C\022=\307\221\205;\027\344Y</\312\004=\n_\251<\242\317\315\274[\272`\274[4f=yI\212\274u\030a\275\240\360Q=\224\036\330\262#p>=z\232\367<F\216\312<\200\224}\274\347\301\013=\220\323@=F\342\013\274V\301\023\274l\r&=\023\022\023<\024\027\301\266,\273\256\262\354\263\230\272\2257\374\274P\253o=\222\007\030=\357\373\0168\231\260Q<nV\325;\020\366\347\273\326\347 \275w*\300<%YC\275\333g\252\265i\304\01354\243\300;t\034\3577\276\035y\275\260\035J=2\222\r:\2130q<\032\0347=$KC\274\343\253+<\331Fg=\240\216\244\274e\023\272\274S\210!4\332\234\000=_.\t6\364kx=\217\323\222\270\225j\017\275\375\257\263\261\274\277\2703\362\351\333\274U\236\325<tC+=\377\245\347<\037\017\2368>S>\275\177e\347\274xmw\275#\3640\275\331\037l=\001#\377\271<\372\346;\025\356\301<\332[\273\274^\324\320<p\354L\272\267U/\274CG\022=s\267g\275}_\014\275\3761\353\274\206\001m<\227E =\314\003\201<\337zN\275\203\002\0249BCa\274\311\3754=y\251\257<\346\303q=\347Y_<^\016\023=+9\024\275h\020\204\274T\364\271<\"YL\274\2168\204\273\303\367\345\274\265BA\272\006\343\250\272\002\020\016\275\235\220\361<)\3166=\307\307U7Ion=\360e\263\272\376\353B\275\2328;\275\332\027\226\274uz\334;\221\221,\274\335+\356\264)Y\374<\223gf9\330\362D=\322\354\006\275\373XH;\245:\202\275\323\370\004\275s\216\311\274\235uT\275}@C=\nIP=@Kl<\203\246j\273\360\226}=\324\337O\275\323\251F\275\270\350\200=\216\002l=\016\303\031\274\245\301p=\305\361n3B\256t=\2238{\275.!(\275\256\2054\275\261\261\017=\275\356\236<\225\354x\275\2628-\274\255\032p=W\316\272;\206\005\203;@\027\021\275\224\265x\274\235\331\372\274Rk\312<\227\314\n<K0\346:\032\346\310\274\371\237v=, |=\205\232t\275\372\030]=(uX\263\207\233\\\275\335\026F=\315G\365\265\256om;\327\270I\275\254\036\030\273v@Z\275\215\335i\275\350\013\027\263\027!N=\343U\030\272\377t\232<\317\327C\275h\t\214<\230\023V3\325)X=kX\325;B\005\023\275\230\262Y=h\347M\275\325.\266\266\345\240\027\275\224[V=\321\250U=q%\312;\362k|\274=\270Y\275cM`\274l\353&\275\017\375M=*\310\306<\302\241\320\2740(z=\235e};\0072\025\272)\020\331:\300\271[<\370\235]=\200\037N=pX\361\274s[\351\274%\250h<J\255\214\263mK\030\275\374\225z=1\330\344<2\3042=\373\\\207;\n\242S\275D\351\277<\370_b\275\323\362\017\266\003\354\341\274\216;\\\266c\310,<I6#\275P\021g\274fdS=\323\277m\275\346~\n\272{,-4\366\233o=(q\356<\247jZ\275t\001\351\273_^<\275\236C\020\275\367\233H=o\235!\275-\021\345<e\355\327\274\230\260\323\274\017of=\226\235\275\263\336\262O=?z$=\217s\237\274\262\251\234\270\033\001\326\274\311g\200\275\347% =\002\021C\275\017\007\2567\372\214\261\274\360\006\035=\325\273\233<\227\032\313\273\351rH\274\002vM\275\341\262\226\274\001\332\026\274\025\301L=\032[\224;*l|=\302\000G= \342g\273\273\rG\275\343\322Y<6(O\273\001N\236\274CM\262\274\331\000W\275\354,\263\274\246\200\262\262\305\356\002\2759\203\020=\315I\004\275\303\3133=A\303e=\247\002@=;\262X=O\273%\271\251\241\3333\355\230\274<\234&\353:|\365\210<\026XI\275\236\263R=\014\267!\264\'\030\343<\007g\005\275\2052m\274\202\242?\275\330\370\372<$4\233\274\340\377c=\035t4\275\374{\317\273\232\221u\275\374\003\350\274\332\363z\273\322\013\270<\344\024\345\273\325\202#<c\300[=8\3142=\344\321\234\270\236\"\205;@\035\3323\210\215\0260Kl\241\273m\231\036\275j\275q\2750\032\014\275\350\360f= \274\263<\260A#\275^\276V<e\230i<\235\001\260\274\252\313\314\273\304\254\342\271\202\207\355:\272\237\244<W,\3072Tx\016<\262\301\0054\3656r=\357%\302<\341O\'=\305\033O\273\037\354}=1F\000\274hJr\264\203@\3729\222\340x<\023\241f<\262\306\020\275zT\001=j\206%=\351\331\017=\364N_<K\264c=~[\307<\344\302\026=\021\373-\275\343\325\0023\237=\254\263\373\257\017\275\217\313\0066\376\213j\274H\377\215\274\347\'\375\274\353\266,=\\V\370<C\324\360\271H\246\027=\301\016S=\177!9\275e:M\275eo\263<\210\036\315<\366\262J\275\231Z:\275\367/\304<d:\033\275\210\221c\274ve\020=peB\274gdN=\001nb\275x\343\203\264x\261\230\271\003\241\206\274\317T2\275\377v\0244?\275\202=.\337,\275\227\0209\275\036 \345\274\366^\014=\243zs:\245\350_\274\333\002;=~\rj;\252!\252\272 \262f\275\3000\034\275\362\014p\274I\247Q\275t;\325\274`\204!=\345mh=ER\314\273=i\035=>uZ\275\305zA\272q!]\275\277-<\275x@q=\273\226\202<\232\2102\274t\354;<\373X\363\274b\223\244\274S\256%\275*\350\200\271\305#$:W\367\035=\245\330\324<;\317\235<xv%;\2057\2769\370\375\236<\001\207\267\274>2\002=\312\327m7$\337\002=IP\316\274\360\367&=\262rn\273\372\233\010=\327\013\023:eg\013;\2104c<\021\0252\274v\330\230\274\341UH\274\321\345O\275fd\201\275-Q}=\320\236[\275\307\233\300<@>l\274\250\307};\210\356O=\267\020\021\273\361\324\242\265\372@]\275S\210f\275\020t\346<Tl,<\323\177\336\274GW7=\233%\214<\007\330:\275\203\373m\275\2136-\264\032A\213<<\312\307<\265J\034\275\302#e\264\252\335+=boW\275uC4=\311\273V\275\324\355N=\252\250\323<\323\314^\275\266\335\r3\237\274m=\321k\304;\3066*=\013\250)=\260\230@=7\003&\274\341:t9F\2326=\260C\332\260\252\220\252\273+\033A<\336^\003=\211\222\003\274\004-4\275>\261\316<\230*!4Z.\000=\\\353Y=\244dM\274\263\235a=\214\370\\\274j\027;<}KL\275\336\362\363\274\031\204M\275\305\231\361\274B\222\0058N\377%=\003\364\307\273\215Y`<,uM:\224\310y\275I\357\306<\370Y =\275\003\343:\207\234K<W\206@=\316+,=\0079^\275\233t-=\324\237\245\274a`==\037\260\3565K\r\013;\257\376D\274\242oH<\370%\025\265\014\200\t\263\301X\351\274M\"\306;:W\366<3\177\344\274\362_\335;\226\307E\275\346\303\315<\350\341\013=\334v+=\376\224\022=\\JH<\272|\027<\370\226\021\274\234^K=\204Y\201\275k\212\224\274\302\356\021\2734\235\361\273@%\0341\211\244\024=\302\024\373\274\007\374\013\264\315vp=\200br\274\360\"6\264O\0023\275\373\361\365\273\322>Z\275\312\304\267\274\372\232\363\267\377\366g\275~\035B<m\016\027\275\372]\225\272\226\"+=\333\351\302<>\177L\273\257q\323;p\n\037=\017&&\275P\327\005\272X\215@\275\216\320\332<\360>\330\272\213rO\275o\t\216<g\363\346;\330\002\r\271\352i\207<\364\317\203\274\rm#\261d^i\274*_\036;\250X\3259\226j\013\275,FP\272\226r\022\266Z\\\344<j\335M\275\355h\204\264\272\036\\=\253\207\035<vJ\3534q?\3474\322H\177;\314\323#=l\337\215\274\227NT;m\322-\275\nsV\272\364\244a;5\202\352<\001\365 \275\237X =\240\004\204\274>=%=B\030\002=\265\2064:\260E\033\274C\263#=\" +=\203\311|<\355\304S8\325\016\360<\027}\310<\322~\277\263\214\276@\275\226`Y=\t\254\225<\330\026\372\272>6\337<\027\343\2518\277F\263<\212\303a6\225\010\256\274\323\276\202\270\224l\260<$t\211\274v;\005=\220\274\016\275\264\222{=\325\264\347\274\310v\000\270!\332E\275fkp=l\264\214\274\263*Y=$\207\"4\377\\w\264\265\243\225:r\247\347\273\032\323\r=wq\034=\246p\000=Nd\010;\t\330\305<o%S\275N\330S\271\204\025N<W\301\267\274\306a;\275\362 \0074\352\3676<}62=f\233==\"\rG=\341\033W=SP\325\274T.\331<4\3223\275\027\270V<Fp\010=\307\363\260<\345jY\275\313\2669\275\210\352T=56.\275P\375\202=\310\345/\275\257\216Y\275\313$\301\271\210YB\275\345G\202\263r\361:<29\0245)\261J\274\376\177\310<L\004\027=\020\335\202=\317\327<\274\230Lk\275\374\ny\275Kn\037\274%\243t<(\223;\274aAc\2751{\237< R\366\274\004\241\\=\326,\210<\336\214\234\273\355\332u=\274\r\3705m\235\323<\322\204\036\275o}\027=\377\301k\275\303\335\335\274\241\024f=a\3233\275\311zy=\317\256\300<d\200~\274\375y(3\304\302\335\271\363\000\233<\231\347\n\272\267\214?<\353\363\022\2662XV=\331#0\263\373$J\273\006\341\201\274\337bM\275\241\3359=\343\n@=\217wm\275\375\010\177=\256>|5A\266\177\275sT\221\274\336\0240\275\0146\365<\240\177\202<t\266d\275\214n+=\342\026\360\274\327\317\310\263\021\3524\275\006\324H=cS\200=L\352\r=\364\021>\275\020J\3367k\245&=\211\341\276\2720\325f\275\324\032\260<\333\310\224;W7t\274\305k\263<\007\373E=\002G\t=\252\303\303;7`\032\272\013?V</\034\317\273\021\301{=\020>\r<sv|<~\267{\274\240\2609\263g\260\262\273Q\202o\274\277\272\210\274\362\342E9\214\314\201;.K\304\272)\272\323\266\234\n\006\275H\264a\275\367\212A=\351\261\362;\010\'+=\004\236\342\274\352\200\014=T\333\372\273\231?\356<?e2\274\267\037A\275\260^\321\274\001\255\033\274\177\2459=U\026\\=\215\300\'\275\347x-\274\375+?\2655Y\025=\261}(\264\250\375#;[>\361<\346\223W=\257\302Y\275p\323A=\254\024\250\273E\325\200\275>BB;\014\0060<\263\017r\275\327+\277<\177jA\274/PY\274\271\3652\273\037T9=\335o3\274\014\274\331\272[\262\273;\250\241`<f\037\214\274$wc\272\366T\273\273\004\026^<4#\020<d$\036=\227*,\275\370\203G=\363\361\356<\370\361@\275\371/K\275\330\0217\275\261\355\023\275\323_\243\274\365t;\273\317\257\370<O\270D<\204\3540\275\252\"\362;\245\023\345\274\364\346\233\262\210\213\351\274\017z\371\273\377\377\300\274\275\276 \2753\364)<\332t\2356HY\3105T\366\032\274\275\3504\275\216^\276;|\306\205\274^\301\354\274\351\226;=\022)\324<v\222\023\275bX\036=+\253\007\275\006\201y<\217\035\346\273&_M\275S5\024=\2026\330<b\216\253\274.\021\242\273J\332\231<\025Va;\340\3070\274\246\367n\270\302\232\177\274\236\022\277\273M-\036\271t\026=<\"\334\202<1{\177=\313\227\244<\361#E\275\326\315r\275\323\312N=\206\261\264\274\3627>5\247\361\200<\244\256<4Wt\021<\006\352X=\252\003q=1\211/\275;,\223<z\230$<\207\244\033\275\034\305\\\275\203R\323\274~!\n\274-g\215\274\003\332\261<\370=\303\272\t\200K=\010\221\0256\262\0051<\006\007M=\205\277\r=\204\246\253\273\341\000M=\340N#=\032\312`\2726s\3479\314\004f\275\206\365\027\274]\221\336\274\212\336\362\274\364\356\017<\251`*\274\230\366<=\001\317\031\274\325[\344<?\302(:\031\213<\274\217\206 ;,O\220\273z\242><x\265\264<D\372Z\275\314v\356\274x%\362454\206\273\222\265~=\254E/=}/0\275\014\302%<\366hv=c\363\350\274%\344\204\272\225^\341\271\257D\272\2749,\221\273!\242d\274\303\344\331;\307\231<\2759\373m<\261\270]=\315/:\274\263\253_\275\272\374\035=\323\234\355\274=j\316\274\360;e=\021\024+;\020\353\314<\370\256w\274\375Uq\275\2023\225\273\257-4\274x\333\214<\234\22462<\215\322\274\251]w\2745D5=\376\254\203\275\010\203\213<&(\202\274s\022\261\273i%#\275/[4=<\226\2333p|\250;97\200\275\3447M\272F+\017;\212\350\271\274\252B\0048\223d\002\275\336\221==\n\227\235\270\004\257\254<\262Gc=O*\226\274\346q\337<X\017\336;X\225)=\021\010\177=O\275\230<\363OV\275\313\314\3219\2326\250\274+q\005<\241-\350\264\256\307\024=\027\307\001\275\356\213\204\274]\263;=AZ\365<\360x)\275\225\242L<\301\006\n\264\302\364S<\215\200\363\274\263r\306;\275\376L=5\213f=\235\300@\275\277\237u=`c\022;\024c)=\362\017\324<Z\247w=\363\365i\275\361e\2269X\204|\275g\007\251\273\323\235\352<\037\246\262\271]]\020<\004\237\374\274\266\250\330<\034\013\252\271m\261E\2743\2072\275\255WL\263\256\321R=~d\\\2756\'\242\274\262\232C=2\211\245\273L7]\275\363\231\014\275\303\230\032=q\312v<\010\200\2177\210\222\232\274\352R\316\274\344\276{=X\014\201=H\215\214<\301E\241:(\340f<\256\3064\274\226\301\200=B\306\330\272\rh\030\264\032\013>2\334d\307\274\374\374\303<\023k\0109\326l9;v\202\2513h\2418=)\034\016\275\254\335\311;L2F;\356TG3\303U)\275\215$6\275\006\240z=9.\306\274\260\312\331<\030N\306<\212\032\3264\3175y=\251\274d<\020\036\2733WG]=\032\252w\275`IW\273\304\357\307\271\r7-=\313(\003=\301\225\330;\361\372U\275\207\017F\275i\304j=\335D\356<\326\251\321:F\337@\275\263\026\373\272\222*\331:\322\225k<\036\203\203=X\366h=\374\276\314<R\366/\275I\225W\275\373V\024\266\005l\2759\372\251&\275\306}\324\262=\217\027=\024\223c\275\n\373_\273\273.2\273f\007w\275f\264D<j\2000;\177;\366<\232i*\2753\014\200=|\344\023=>\020!=\017\026\213\274\314\'\316\274\025\231\035=\2312\2029;\260\002\275D6\2318\n\304_=\023y\237\273\233V\260;\013\022\014=A\340\347<\322\0034\273PO\320\274\346\364\035\270\361\212p\2757\"\362\274\204\022\0025\032<\257\272\377n@\275G\026z=\315\352\274:5\357\002\275F\034\351<\376;\202=\312\262\304<P\231E\274\206r\320;\205\220k= \344\013\265B7\341\274-\365\2753\"v\016<7\321\t\275\241\301\351<\224*T=\274\213R=17\034\275\332H\'=\363\234\304\273-\340\333\272hYk;K\241\326\272\016s\302<\254\212!\275\036E\205<\361\353\371\265!\246\2064\261\275N\275\323\201\364\273\001\026\013<\031\346\030\274\363 H<~\376\323\274\027\246\217<\223(q\275\255\014\314\274Zn\267<\230\273\2074~0\016\275K\217\024\275\026\215\227\267\355,\365<\300Tt\275\303\352\022\271\035UJ\274`\353\026\275\226\014\177\274\227\3378=?\254\013=\227x\3447c\222|\275\335\332?\273\337\375\202=B\340R;\177L)5JWK\275\250\037F=\270RZ\275\"\241K\275w\220\017=\314\323i\275\231\257\264;t\035$\275\30059;\344\005\2243\321\255$4\344\361\247\274\002\037Z<\374\030\212<\223\237\224;\342J\341\274e\374B8\002/\"\275\365J.=K\353\034\275\221\363-\275\371$\363<\005\233:\275l\323\2129\226\0172<\315\241p\274\034\r\241<\214S\222\263\364\035\260<\304\222\257\274\221\263m8\214\2376=elh<X\375\263\2732\016\263;2\216\014\274\354\234\032\275\022R\350<\214\353\260<\245\320\\\275!Q!=\024\323R\275o\346\034=[\245Y;\020.\004\261?\224\022\275\325\242>\275\023v\031=\000\251l\274\223\0007\275X\213\264<\266\257\002=U\336\270:;r\314<\215\3703\263K\357\204<\334\0214<\001\353C=\355\302B8\251\017f4E\274d=\025\021y=T\016\223<\322\267\t\274\230\307M<_\247\\=\314\354\201<\366ts;\375\347\340;\177V\214<.\215J=\356\200#=\232\223\205\273{\247s\2757\214\347\2731o\212;\365\245\202\275\227\241\216\272\211\247m\275j\267l\274P%B=\017\224\307<\246\335\3019\275}\307<\300\270s=j:*\275\366\276\211<\037\303\027\275\003\321\001\275]\013Y\275\\Fi=\3022\037=\210\374\247\272~\246\3434\001\001\315<\006\370\n;IS\332<?\354?=<\201D\275g&W\274\212:\020\275\347j\266<ZK\377\274\310\354\372\273\256\334z;\247\032\245\274\220\271\301\271]G\276:\2272\010\274\243\342Y=\0064%=\363\2562\275\035\\\276<ou\276\274d\204\t=B\032$\275\3617g=\340\314\r\275\306\316b=\320+{=(Zp\274$\200T\275\325\353\022\275xe?=\005&\004\264\233Q\250\274\231\353\2239\233Y=<N\305\351<\237~A\275\256@4\275_i2=C(\217:\245\264\334;\240\357,\2750\022r\273\346Z\201\273mg\203\275bMO\275\\\346P4\342\311\021\265\006\255\"\275)u\021=\254\276X<\344^[\275\372\342\362\274\234\335\3679\026\266u=\270\315\001\274n\345\324\274\324\244v\275\032C\313\273\213\306\210;k]3=e\217\234<\277\336\3173\001V\201=\354\010\2146\376\360\022=]E\217\274\3130\226\274\352[q\262xnX\274f\036\202\267\210\241\365;=\231;\275\307>\021\275\0035\273<\203\310_\274\030\022g=*\376>=\307/Q=\240v\357\2749{E\274\256\350n\263\323\317\334\273\005\246r\275p\311\352< \326\300\274\212\264J=\270F\022=\372],9\375H\003\275\r\340h\275\311WN\275\326\372\203<\007\236\331\274\004\377\303\263\361L\363\260\245\301\210<\355b\337\274\256\0207=\200Ro=\320\351\310<t\212n\275\365\235\\\274\212\236Q;\371\023u\275kv9=\'\252\026=W=\274\272\321\273\032\2751\265\214<nz\373\274\352Uk\275\307Py4\247\326\344<v\344\026;&\2145\275\244\030\036<\215\351d=f\334t\274R|\235\272\332\331\n:\332\213\005=k/\002=\022\271m\275\201]\245\274D4\\=\320\324\231<\354\351z\275\206\217\262<\0022\372<\036W\245;\275\217o\2759\262\033\275*\267R=Wd\2228\215\277\375\274N\306\005\266V\307R=\317t,\275\256-\275:Tw9\275\242\251x4\345G8=\267\0215:@4\240<\261:z\275\2541\244\265\036~\373\274\3147A8=|\220<\313\257B\275\315\350\272\274,\362\246:(\034J<\262\357o=\254\362\223\274\217\340\202\275\031lC\2750\310\037\275\326\036<=F\254/<\302\211c=\314\276\243\270\364\340;\2643\262\363\272\317\251R<\267{-;H\035\301\273\314\3742\273\353k\001=\204\3148\275f\206\020<\261\200U=\033\275\036=4K!\275\303I-=h\306\014=\036\t\211;\n\200|=\351\266\006\275v|\250\274z\177\202=\374\251\330<\254\204@\275\201Q\3020;_\342\263\2533I\275\\\032\3159\004\246\3303\206\346\017;\2724\355\274\203\313\231;\250\210|\275(\030\223\274\204e\317\267\351\311\022=sr]\275\017\3753=YI\302;?\312d\270K\335\265\274\261_\024\266\2162q\275T6\'\275\006{\267<\275\037\346\272\275\203\213;$\330,\275\235\2077\275\317\0241==\'\363\274\2535E\275r\372w\275\'\026\316\274\330s\220;s\272\243\274\372\227\005:kW\005\273\236\0008=\307\272\342\264 \2472\275\317\010\020=\301\277\255\274\200\224\315\273]5\331;/\210\206\274\256\302\207\273\352\313\302\263n\204\3505\243N\212<\037\326\t<uh\201= a\247<\323Q?=\2424\001=\244~\375;1\003\303<QjU\275\"{Y<@@b\274\256+\014\275r\373j=q\247\037\273\317\315\341;C\311\266\272\016\n\371\273,\274\356\263\021r\214\274\022\306\217<\327!\023\274H\272\3204\323\261\023\266\224\333\226<\025\324\260<\371\300F\275F\345u\275D\213\327<UZT=H\2172\274\323\343\027\274\035\010\346\263\017;\230;\3508*\275\000G\245<\250OD\275\311}\006\264J\rJ\275\3513\305\265\257\260\254\274E\014\3244t\300\273\273\333\374Q\274\010\2618\274i\202\025\275\346Z\200=\222#\032=\356\3429=\237\346\026\2759\363\232\274K\2701=Vh\027\264hA\010={\366\373\274\250\034\0246\203\351:=P\302\t\275\254\2349\275q\022 9;\\ \274z\n\325;\337\'\220;\342\247\266<[\350L\275\356\3245\274\251\305R=NT\200=\274\256\203\275\233o\r<\216\302\000<\220\224\203\275\367R\231\263-.N\275\207\016\365\273\014;#\274\240!Z\275\371\"\327\271\242\310/\275x\017\261\274\236:\203<\262DK\275\205\341\014\275\344\'\022\275\004\352\272\274{\321\2563\333\300\027=avV;\266\323\003=%1\232\273{%\223<\023\211b=W9\026\273\366\357(<\255\353\226;dQ/\275&1\2222mk\257\274\334\025\036\275\004\363k\270e\226(\274\020\313\256<\261\336?\275\255m\037=l\267\263<\3076c=\364\367D\275\354\367\206\266P\237u\275^\201\234\2749\206\025=#\002r=\000\262\240\273n!\312:T\032H=\260\223\342<\346\347\037\273`<%\272\227\344\241;(\027)\275=\243\0135\300\274\007<\017[\205\262S\247==HF\030=p\372\23322\327\022\275\002\316\355<\364\024e\273\357\267G\275\273`\021=\016:\222\274\217 B=.`\3524\260\036!\275\245\236\r\274\367z\250<\256g)\275\204*\213<\216\026\r4\n\\\344;v\247E=1\340\022\275)Ae<\035\242h=\232\000\036\273\213\305K\274\'\312\335\272n\347\024\275\000rD=/An=r$\357;oE\020=#AG=\302\3504\272n\233L\275G\262\252\274$\037\314\273\036\371\241<\213BN=vi:<\006L\001\275%\271\336<\270\212\260<\233\352\232<\273X\252\274\365\342\2044$g\373\274\304\007\376\274\313j$\275\367>\200\275\372\335/=g\347h\275\306e==z\\d\274\017\216\202\275\220W =\310(|\275Z\014\017\274&\274\\\275\323\016\026\273>\341\330<I1\324<\254p\263\273\241P_<\001|y=\336\35269r\024C\275<n/<\313\244\2078P\360\034\274\261D\3578\"\022\"\273F\366\032\275\037\037\004=x\002R\275\200\337\212\274\252\234\323\273\205\000\237<pvR=L\314\350;\336\315\205\273\361e\314;\267\032&\274_\302X\275\237/Q\275\33392=>\247u=Lw\020:^\206G\275\375;I\274\267tp=\350dF\275PG2\272_Zl\275@\377w\274\034\370\014<<&\001=PZ\311<Pu\364\274vd4\275,\025\2753\373\270;\275\275Y\233\273\263\376\364\264@lI=\364\'3\275P|w=\230\350\220\274!1\227<\254]\026=\356\253\273<\315\233\217;>\235\033\272\321\232\002=|\2628\275\245\207\206:!~\034=\022\242\307;\034W_<\254\000\200=\227\r9\275\212\320\034=\237\345\347;eQ\246;N9v\275{\005M\274r\325P9\363\006V=C\031\217<\355\021h\263\252Z\262\2673P\000\275\031\200\203=^\024\020=K\332\031\275\341IE\275\250\234n<\356\3520=\354\265\260<\217\345~=\324\377\020\274@@8<B\307\333\273\222\220>\275\341c\n=\346\302\002=\263\261\226\273]12=\214\375\001;5\270H=\343\033Y=\"hm\274\003\227\304;\265ik=\330&\374\261\003q.\275N\241\301<\236\233\376\274\251\001;=bC =;\n\010\273\242\202x\275\206C\276<>\233\340<\203?t\275\201\323\352<B\320i\275\346=\'=\312\265\334:i\036\245\274\265\272\202=\255b\017= :\200\274/\217o=\021\275\312\265\320\311\354\272db\206\273:\240n=?\032j\272\277\346\315;\241Jv\275H\037x=7\245\035\275\231\333K\272\311\253\341<e\321\226\274\310\357\005<\224*\357<\336\321\230<\237\333A<\014\'\276<\030n\360;\265i\023=P\024o=\322(4\2750\205\256;\301*\2677/\210M<\372\310\021\275\005\2435=\372\374#<S\364\340;\251\366\337\267z\241\251\274x\r9\275\252\333V\275\001\246j=!\013\033\275\255\n{4\247\272y\2750i<\275W\372(\275\205*w=\267\306p\275\357%P=\346g\344\274#\321\350\274\"\261\300\274\206\262\035\275/\275z8\271\300\242\274J$X=\360{0=\335\361U=\260\221)\275\254!s\275yC%=\006j\357\274\365\250B\275}`+=I\242\'\275q\302l=\026.\270\2721\036\036=b\025\310<\201\273\203\275\321\240E\275e\362W=\013\rQ\275\377T\314\274\371\323u=\'\236\035=\365\2612\275\274\232\366\274A\315\373\264\264-\177\275\366!k=\376U\332<sJh=1)6\275\272\324\222<\245\304\300\274\366\311\t<%\225\002\272\221\r\\:\221\014H\275{G\211:\266_\202<Q/\263\273\255!0\274\254\001^=\354\252\306\274\0036\353\274\201\244\224\274K\227\314\274\2359\225\265\302\365J\274}\262\006\275\032Kd\275\303%\313\274\365H\215\272\3434\234;\335\242a\275%\243\037\273vxr\273*\253l\275\034\3030:\026;M=\025\201\315\272W)x=\354\240\366<\212c\200=\017\367s;\257\027\330\273\204\326B=\224\365`\275y\311\231<n\303\277\274%=\027\275\212O\371;1m~\275\314\2348\274\271\352\3559]f\262\274\233\030\35099i\243\274\020\271O\273\317\226\206\273\323\0073=\226T\367\272\320u\255\274&\236C=vG\035\270\242|<=|1O=\016eB\2749u)\265\022\341\342<:\260/;R\360\032\275\311\332\333\273\303\307N\273\360\005\030:\036\261\316<=\343\006=I\323\000=d\234\236\274\253=P\275c\225g\272[\251&=\242=(\275>\303\006\275\214\330\007<J\375\202\275\223\324\n\275\035\030\370\274\367tF<\210o\224<\253\227d\275\211dV\275\244u\0266\254\243%\274\360P\267:\365\234\276\266\214\362e\272\342\222\321\264S\023\"4\371h~<t\302\034\275\263\320n=\032\367\320;\005qX\275\261\n\326<\204\270\236\273\214\205\0215-Ci\275\005\274\006\275\241\005\247\273\020P\001;v\261\024\275~\335S\275o\302\026<+Yx\275b\221\n\275\244\277S<\266\317\004\262U\321Y\275\035\363\371\274E(\333<\254\376v\272\345\345\035\2750\245\030=Ab\337\272\000\347\001=J\235&\275D1\247\274\207\227n\275e\036\271\264\276\001\001\263\354\r\007=i\312\351\274uC\0323\\\354\233<_f\000\263\036[!\266\014k\376\274{\371\244<\310N\033=\353{Q=\361p\037\275\320\2440\275\266\232\321<\337yF\274\037\372\334\265oeg\275\221\252j=soQ=b4\t\275L|Z<&4\324\270\007\356\020=\223Y>\274\312\371\204<\317(C\275R\016\221\266\225\314\342<Q-\021\275<}V\275\312\031+=\226\275C\274\206~\2145)|U\275\313\177\r:+i\315\274\256\357_\275\270!x\275\225B\312\274\360n\272<\377S\235<\366&&\2750\305\2302\361Lp\275\237=J\274\r\303c\275K {<.\034\2576<\357N\273]\247S=Cth;Wm\251\272\261\243d=g\373b\275\372\267\360<h\302\003=U<\017\275\306\272X\274\265\003e\275\301N\355<\330\222\366\272\334\313\255<0\261!\272\217\303\276\274\000>p=\222\021,<\037N\227<\360\031t\275\312j,\275\235\'X\267\263/\315<\3631H=n\271S\275j\212\237\274\254\"(=\340v\355<\260\032\2209=\307q\275b0q\275\270\1776\275\365\006e\274\227\245\352\272P\346\266\273L\215\354\274\340\256\216<\202\177^\274\3077\320\265\034\364\302\274\2479\310\270\016\377#=\275k\004\2745\311X=U)\207\274:{\3555\226<\005\275\2424V=\240\006p\275\355\000\321<S\273j=\'\265\206\274Jo\017\266\027\017\370\274\236\3368\275\016\300%\274V\330\2562\005q\005\275@\314\014\274l&?\275\021\366x4\253\036o\275\020A\331\273\323D\317\272y\356\002\275u\327.\275\010\372S\274\026\322\337<|`\345\274\275\306`=\016k\036=\321\206\365<\215(\3735\371y\331\263\223\212e=\2567\014\275\016\212;=(.\212<fv\3072\223\376\021\275\357\337\273\274 \332\300;\3131\305<\233\373\271<\233\220\000\275\r\233z\275\020\256H3\362\217\263\273\2517i\275WF\036\275/\240\020=\021]9=\307\261\354\2740h\016<\326\035\211\267\254\333\"=\031\327\357\274\262\035 =\325\001u\275\220\227\227<\017\rf=_\205\262\274\r\305\020\275\2156\371<\371\247p\275bo\346\274@J\333:>\003\354\273\016gu\274R|m\275\267\035/\275\221D!\274T\224\242;\241\014\017\274R^$=Pt\221\273#\226Y\274\003a\014=>J\020=/l`\275\210\344\023=Y6E=\313\240h\275\003\316\'\275\2767\1771\342\302\2565\231\031p\274\231u\375<\3559M2\240\026i\274)\027&\275\230\263^\275\211HB=\317\246\215<\237\266\203\273\272\260T\272\271\016\337\274;!d<\272.\030=\242\231\202\273\276\243Q\275#Dm<nA\033\274\340a\204\272C\013\211;\266\271\3039\2618X;\2415\014\275=w\001=\250\337\2604\306V=<sF\023\272\364\016U=\032\275s=\307\363\032\275\t\005s=\216\266\000:\302\212\364\273\026\006\306\274n\311\256<\334(I<\207\333t\275B\001\361\274qj\255\270r\307w\275\215\021W=\373|\0149\300\336X;\265-\254;\372a-\275\n\262 \274\014g!\275\035\242\306\273\217u\2078^8\346\274\r\211#\275\313\364\346\274\016~Y=W\234\351<\366T\314\274\345\202\036\273?N\373\274\002j\255\274\2558\363<Jt\2052\234\023 \275\207sR=\331>g=1Dh\275\233Z(\275\255[\377;\335;\263\270\357EA=\201D\300</\034\024\270\216\026m=#\007\327<\204\362t;5@H={\021\247\273\356\333\"<$\240)=\377w\237<\232\036==\206?\377\274Q\334\371\273\320\310\333\263\034\313Z\275\267\260%\275\217U`\275&\252\246<1\247o\273W \341<!\273\230;\037\021\245<\21414=e\373\222\274\316\313\241\274H\351\n\275\363\"H\275\332)\200=\025R\r\275={\233\272a\030\010\274\214\004|4G~\214<Y\246\200=\260\017\2561\342\211w=\370\313\037:\303Y\370:5\376\t=\001\215h<\331\023\222\274\330\2516\275\277\214\321\274\300\027\014=\235\205z\274M\201\322\272Q!\203:S\032B\2758\343\361<\\a\006\275\242\211U\274i\354\323\274\367%\347\274\301\361B\264\327\340\343\274\361i\374\274\0303\303<.\244\314;\301\345z<-1m\271\264\260M<\3342s\262\010L\225;\212\316_\274\202\336Z\275C\2026=65b=\367\367\005\275\010\316\275\270\263\017U\275\033~e=\235\213Z\274w\222\200\275\3141@\275\226%\242<\211\275\363<\217\244\023\275am+\274\320\255^<\267\360:\275\023^53B-U=\304\221\031=\270;B\274\203\241m=\225\235\205\273\277\006\027\274\330XB<\"\222I\275\232\037\244\274j\225\305;r\244\352<r9:=\206\353\n\275\225\020J\275\370n\036\274\' \264\274\261\rb\275}\344G\275\332cZ\275\220\216\025\274\333\342\n\275X\227\265\273i\250\002\264)\243\331<\222\246p\275\325\265n\275x\203T\275\245-W<\241\213(=\230o\324\274\005\263R\275\335\341:\273\302\010L3VJ65\271\246\2714x\233Y=\330\356P\260&\r\022\274A\025J=7;\010\275\177^P\275\317\'\251\270\226\212B=\375\207\032\264\343X*<\242c\260\274\273\214\326<\001K\236<\2412V\275\342kZ=x\271\3762D!=3\366\3052\272lo\364<Q\3015\274#\217s=\241\037v\275\232\272\025=IZ\341\273J\252\311\266\346\324c\275|\341Y\275V=x\275\034dy\275\244\247\204<\000\227H=_\360S\275\374q\277\273$#c\263o\321\022\274\342C9=\263\031\231<\227\337\031<\210\276u\275R\037&\272\222\004\025=}\351\367:\225\345\203=\356!\325\274\343\004\203=\303\2652=\020\333c=Q\325\215/\245L!\275\221\2324\275c\236:\275))X=\007g\252\274<\324b\274\225. \263wf\331:\315\233\016=Z\037n\275\270\0328<QU3\275\362Hy\274a*\201<\307\252!\275\332\327B=\331|\013\265E\353/\275\206N\2147{\363\006=\357\'\031=\343(\226\274\316\223\325;\262\021\301<\314\234\306\274\316 \"=y\267\255<\270\331\227<qQ\2059i\332R\274\200/\010;\2529.\275\353\233\323\274N\352P\275\327*\261\273\223\355\220<c\236\363<\277\177b:MA\203\274\022.\2436SM\177\264T(\001=Yv\005=\343\324\353\274\226\027\003<\223\317X=\334\020\322\274a~i=Ywc\275\357\230\225\274&>T\272\335\261\025;y\277\310\273\213\210w\274TyH<y\317\360<\022\3346\275b\255\242<\260%\234\273\331\201\264;\345\303\216<$\300-=\303\031\321<\274\247\265<Xek\274\234\243\200\274\204W2:!\275L\275\351\353 \275t\272D\275\355 \264:4\222~\274\212i\333<\372\314\030=Czb\275|\244w=\034\353=\272$\352 \274\344~ \275\031\002X=X\203.\275z\242\013\271\312\360\0276\222\322\2463g\2253=\272\364\325;\241\202:\275v\034Y=)\356`<#\343A\275I\347\002\275\232V\372<\033\251\2553?\346~=\307\r\300\265\270%\n\273h\342$\2743\030\360\274\262=\033\275\023\2363\2758\214\010=\325=f<}\335\370<A\336]\275\263\337%\274\326\272q=\037\363x\275\351\261\303<\306D$<\2058t<\367\025H\275\245\017\254;\251\247$<\035\316\200=^\341E\275\275s?\272\355\374\202\275\201@\020=\362\303\336\261]\216x\275\026lA=\037\204\020\275\237\255\202<\255nC\275gd4\275\013\021>6\212\320)=\'\013\211\274Z\266?<mZ\235<%\253\203\274\326\236C\275m\336\202\270&\341\326;_\027\365<\030\023\2128\306w\347\264\003\216\214\270\224\320\236<\206\262\001\275P\277\220:\216<\267<!)x\275\200\366b=hl\207;$z\\\275+\265\002\274\257\313x\274\302\331\211\274J\374F\275\373\tu=Q\264N\275/\274\220\274\346\213\027\275\316\365\000\273\237\3532=dI\377\272\025\234\030\275e\210\224\274\205\212\377<\364\305\014<i\'\363<\373\025\201\264jg\r\274)\036q\272\357=\026<\"@(=\2277v\275\031\257M2\367g\313\272z`\250<\323$d=Fl\014\275\247\325&\274\365\242\337\274\232\023y4\335\242b0<\241\202\274\274\315\342<\321(^=+I\302<u\021g\275\037,/\273\032IC\2749 q=qM\265<\255#\231\273\364\274R=\233z\237<\032\252g=\241P\370\274\375vy\273\004\201\034\275\3071Z<\275\033\2245~5v\275A3(\275\240\345A\274f\265\354\272l!\3165D\275K\275\t\013s\275\314B\201\275#a\025=n\"\004=\233 }\275\357\005z\275\242\350T\2754\273\260<\232o\374<\211\216e\272\265\024N=\273s\210<h\302x=\377\361=\275\225\357\013=\346\324(\275\356Q\004<\276\356,\275B\272\223\273\336\211\257\274VJ\302<\352\376\215\274\003\227\023=\210dM;\306\273n=\r\234f\275Yy\353<U`;=\037\t:<~ZN\275u4\002\263`\001]:oQ\005::\257\024<\262Xb=\021A\336<c\321\340\273Xk\2244\356\013\365<\315\360u\275>=O=\362`\26686Wi\274\263\317;=\215\210<=\227[Q\275\037\360B=\347\242\256<\235=\006\275G\327\237<2L\240\273\020\353\360<\307\367\277\274\241\355\262<\006\310\255\273\177\203\326\273\243XR<\346S\203\272(\277\337\274\203\312\222<\277\024A=\274\355\362\274\343\372\317\2659\375\207\274\235\2273\274\344\240\216\274\373l\350: pY\275\313\304\225<#\353\370\274\321K\013\2661\177U\275\267N\2277\236z@\274\223$p\271\200\317\337<:\020\017<+\231\000=\007\347\354\274\335\352\261\272\177O\316\262G\227p<\372\235\316<\250p0=\010\010\340<\n\341\272;\245\374\235;\334\217\037\274\204\256\300<\211\217\252;p1\036\275r\346\233<A)\373<%\377[\275\235vs=\304\177\264\265Z\177\361<b\305B=\364`E=\333\177\010<\220\335%\275:%n7[\340\360\274\260\027B\275~\214\377\273\330\255\r\274\233\"A\275\034|\025\273R~\317\274\342p\214\274I\314Z\275m\3671:\220\304\260<>\264M55\303M= \307\231\274\342\024\0024\356\366H=\353\201K=\240\347\224\274\022u\266\274]\022\307<W\356\3575 j\035=)\301\237<\032\331z\274\254G\031<\301c\357\263\364\216p=\031\305 \275\2139\265<\243\025\212\274\2107n\275\360\2069\263\030\306\231<\224\2225\275\232f\266<\2608\273\266\202\246\014\275\030>\2765s\227o5\007\223\336;\352H 3>\312\215\274tl\033=Y\022O\275\031\035\272\2731E\276<n\241{=A\344\010\274\331\030!:v\224\261\273\243a\257\265-\302\370\274q\247C:\006\320J\275\234\215^\275/$\3512\200\002\273<^\376F\275\275n\002;\311\342Q=\300\"\r\275v\377\000=s\215X\274Q\203\355<\2748\0305IT%\275\334\350\333\274\250\003|=\311E\3608\371\314\355;\344\300_6L@\0002X\302=;lC\254<\266j`<o\342\213\273\325\2744\273\263\n$<\322\026\314\273L\266a93\342^\271u)\033=\305;\240<\244\336\253;\020+\216\274\310\350\255\271\257R$=\0208\262<\353@\347\274\023\246\314\273\315\'\371\271l]\017\275\365l\366;\262\363+\275\316\r\2604\336\334>=\331#\010<vyY\263\177\234==\304\372y\274\355\016\014\275\207\036$\275\274e;<%1\262\274FU\374\2747\236\200=\342\t\241\270\177\270$\275\375\3566\2747\275-3D,2\275\240B\272\264S\251\027\263\017PS=\263\322R\275\003\224D\275\263\366]=\203\031\021;F?O=\365D\026\275\264Bm<\333\313g3Ja\2317\377\242\272\265\237\243\r\275\2711\314\274\006\231\227\274\247\301\030;\362\307i=s\234\372<V\233\0162\211G\332\274\013\303\006=\364Pf=QW)<g\265\366:\351l+\275\016 \013\274\350!\024\275N\023\002\275\251{>\275r\356l3\273\241@\275\230\303\\\275\357ym=\315}q=\037\001y\275A\231\027\275\334n\246\274<\2158=\321\233\037<\241\177C=\321~\202\275\200dK<\362\245\314;0\255\004\275\217\264/\274\203\265v\275=\030\r<<MW=\277\323\332\263\346S%\275\336\244\257\274S\205\202;\223\362\313:\320\214L;\360\0071\275\271\334l:>o\202=\035&\327\264]O\207\274\241-B\273\354?\003\275\016\314\250<\221_\301<\205\036==g\212\3624\272\324\r<\327\006\0064\276\350a=\351i\003=4\302\305\262}\212\177\274H\203\242\274dWw;\006\243\203\273\200\004\266<rz\214<;]K\275\324\360\214\274A\317\0364\367\201\206\2741x&\275\204\3157\275\267\260;=\251\273\2303\354\354\212\271\234\013\003=\310k\327\274\373X\"=\344\211A=mGT=S\243\201\275\373\253U<\335ws\275:\367\005\274\357\037\202=\371a\203\273\347\301\031=hn\001\275\206#\021<\001\222\2369\206$\225:\371\3201=C(\345<\017.\235\274\205\355\221\274\267\023\004=\201\216{\272:\346\226<\212\263<\274l+\000=Zi\207;y\345 <\305\026\0255o\217\243\274n\272\267<\272\267\"=\027\356\266;\'\262\206<6\256\315\274\342I\326\274$\256d\274\302\016\370\267^@\357\273\237\005}<E\025Y3\233\314\315<\375%\025<B _\274\262\342\030\2739\311\036\264q\032\370:\377\336\217\274%\366V=\367\007<=J\035\000=\232J\2302\034\n\'=CTo\275\244L\010=\302\260a4k\265\235<p\362\206\274\376E\2074$\334\257\274\302|h\275&\r2<&\0357\273\355\212s=\212\271j\275\344e\026=\312\313\004\275+\n\356;\230\363\356\273\247\341\202=\204xJ\2742\036\024=\000\2046\275b\227:\275\364Ma\275<\2348\275\221\344T\275\030\210\233;\342\205Z2/\234\0276\016\234&\275\233>\307\273\226Y\376\274r\307\002\275\016\017\202\275>\007+2\350\014>\275{J\202\275\017\372@3(\021t=Wc\273<r\2207\275`\241;\274\266N\0203\226\225\375;7\237\212;Bn\023\275i\344s\275\377\034\262<S\2078=\r\2264<\031h\024=\260\255\2319p\272s\275E\374>\275K\014t\274\355Z\241\274\350\242\2749c\354\361\273\250l\247\273\'\r=\275L\232\311<J\034\213\273$\303`\275\336\207}\275\251*\262<\243\211\244\273\361\3627\275/x|=b\362t\275\036\342]<f\254w\275v\214p=\331\3003\275\317\351/\275\271|+\275\227\271\231\262\361\334%\275ER\016\275\270\200\n=s*{\275+\013F\2758\370\200\275\020\314\261<\003\336\211\265P\2703\261\020:#\275\222\t\236\274\264\331-\265\310\273\004\275@\373\034;Ku(:m\n%;%\251:\273O\021\017\275\223\344\233;\225}\340<\264\207L\264\306\233\\=\014\277\370\273\014\2612=\210\322\0053V\213E\275\211\351\206\273\245Vc\275]K\023\275\367FD<\247\243L\275]\317\301<\243\233-\273\3743\026\263\026I\022;\203\256v\265\252\331\356\274.M\3169\002n\352\274\376\201j<\236\353%\275F\372\014=\261\255\n<Q\312\320<\217\\\177=\364\377l\273\204\376\240\271\275W\020;\201o\235\274\306>z\274\341_\311;\337\376\201\275:V(=V[5\275\205\356\254\273BE4=C\236\010\274\214\271#=@\\\223;\t\226\034\274A\245{\273~@.\275\nIq=P\370%\275\0074v=\3676\r=\370\3620=\221\016\006=\n\366z\275(\r\226\274\001\306\374\273\233\335W=\376\334\003<!\210I\274\361\307\026\274\340\213\030=56#=\341\260\0266\342ns\275\335\343u=%\326\014=\305\017\203<\000e\237\274\0054j\272\334\315\267<{\020\304;\234\350\265<\206\323\331\274\\\n\030\266S\340r;\330\210\301<a\014\230<#\220!\272\241\235\016\275\322\327\027;\002=L=\233\031f=\204j\016=\253|e<\344.6=\356\275\333\264\307\r\364\274\026F\013;gR\314\273\364=*<\357{\037=6\230\032\274!\273\241:\243}\037=5.\005=f\rs:\0144\264\270(}\'=\024IJ=\317.#<s\217\363<\302\253\315\274tg\3439\244;s\275\330\346>\275C\037O=\265\030y=r\373\024=\201\350\312\274|\021\341<\360\351\034\275-\0028=z\373\223<\014\236\371\274\340J\030=\252l?\275_\nX=\025H*=\325\205\010\275\303\271L=G\310y<{\270\013\265\332\3336\270\001\213]=\251\343\252\273\356\366t\275\"\206o<L\256e=\266MM=\025\241\207\273}K\265<+4>\275\033\205\\\275?\257\2154\007\344p\275\033k\332<ly\333<?S\356;\251l_=\357\314\177;\n\227b\275\247wC<\315\345\374\274]\300 <\370t\3023\311\217\376<\022U\335\274r\376j=\263M\025=\372\246r<\202<\256\274\262{\000\275\031\205I\275UT\373\273#\030\264<Z]\302<\355\277\027\275:)==\010 \260\274,\356\033;\315\311@\2755\302\256<\007\3472=P\266\027\275-g\224\274\010\214\r\275\307\026\017\275\272p\027\275$9#\274\353\341\345\274v\346\231<\337Lt=\376\021?=Vq)\275\314[x=\345A\r=\331\320\006\274E\022}\274\273\214\017<\206\252\267\274\216nu<\242\307}\275Bj\226\273\322\326\236:k\010\2559\370\370F\275*\251\364\274\271\320\021\264\315GI=\316y}<\023h\227\263\306x\\<\307r$\2733B\367\274\311\225\236<\300\026~\274vW\264:g\007\262\272p\237l\275\364\355\222\271\376C:\274\025\300\272<W\031\354;d\245\263<#.\224;\211\010o=\300K\330\263_q\001<\035\265\037\264\255D\023\275\300\022S\275\274\233\n=\026K{\274\214\243\270\274|\3270=r\035\033=\177\020x\274\241\013e\275v\260\r\266\n\330\260;z\353\343\263\303\017\004=E\237t\275n[\220<uN\233\264(\374\037=\033\302\256:\236\326\343;C\257\244<^\264\027\275 nl<\322}4:0\214\266<\255\0105\275N\203P=\375[\316:\000sL\274\300i\372\274\023v\2225\033*L<\377&\037\274$<\021<m\223\014;w\352\246<\302\323Z=\3459k\275pB`\274\3074x\275\0003\313<\330\262\202\265\327\354F=\343\314`\275\262\177]<\371\270\006\272\310\311\335\274}\366\231<\371M\t\266\034\233\345\274h$t\2743\030\231<\\\315,\263dSi=z\014\323\273\030\225t2\306\034\346\274)\272v\275\337t\212\274G\334z\275\360\217T=\035{t\275\256\004\247\273\333e\010\275\207=\275;\351\262\020\273=\372\264;?\257\0256Q*o=(\221R=<\320N=\346_\312\271\257\241j9\205Z\370\274\334&7\275B\220q=\331\340f\263\233\372\355<\362yF\274\263\255\200\274\010\032~<~\300\232<f\000J=\271\013K\2756\251 \275\211R\200=\031Px=\301\343-<R\302\243<V\333/\275\340\177\202\275>\317\023:\006\357\351<ja7\275\335\3648\273\036\347\202\273\255\321\345<\t\002\300\272v\t\215<\375\003!\275D\253\270\260\r\301\257\273n\26523\326\232-\275&\361\270\273\304\245\306\274\017*e\274\270@R;x\220\033=V\177\004\263\233\272E4\022\233\034\275^\304\322:\332\220U=b\244C\275\352o\t<\r)\r<\001D\004\275\345\213w\274\031Od=\344\214L\275\260\306O\263\230\340^\273D,\020\266t\007*\275&\205^=m\325\2656Y\243?\275w\310\244\274]s\207\274\034\010L=\366.\231\274%\t\347</\351\013;H\335\"=\027\023\240<\302\217\272\273\344\003L=\r\330I\275\224\017@<\322\325\3407K\374?;\024\364\014\275|\036\037\275\372\223\330;\215\376\230\274\303\276\013\274\022\317\232\274\235\370\0006\222\016\244<\243\030\"<\217\266d\275\254N\327;\270\227\207\267k--\274W\213f3K}\321\273\226\236K\275\337\021\212\274\306\335\027\275o=\006\275}9+\275\235\321\201\275Q\025\010\274\247>_=y\274\273\274\217\221\200=\375\374D\275^\320\370<\203\310\325;\247f\013<\023{2\275\347*I\275}\203\313<\376\0240\275s\273\022<\304\026\216\274\207SH=\276\313\026\274\262#\342<\237R[\275\240\023\230;\341ax\275\215\256A=;UD=\246\353\235\273\274\376+\2755\021\330\263\030\266)\275\326W\211\274\276\263o=\261\243\024=q\211s=H\'?<P\363\376\274\363\372}\275\314\033H\275\257\007}\274\322)\037\275\302(O=$\027w<\270\367a=0\002\t<(J\252<A\327\277\274\021/\331<.XW=\nl|=Wok\274,\315\206\274\263!l\275A\027C\275CW;\262\271#\320;\341\nU\272\267\345V=\023\007\224<\022\336\0049v\367N\275\374/\024\275\252mA\275\\P\372\274h\017\005=\rP\\=\351\211\320\274\0213\312\263\303\225\032\274\222\2625\275k#$\274\210T\361<\252\372o=D\177\001\275\375\200;\274\356\276\346<c\033O\275\375\323@\275khr<}\355\365\273\0248\246\273\013\022x=QIC=\373\371p;\004\ni\2759\002\275<f\034\016\275\212m\237<\256\266\375\2747\230\030\275|b\330\271\327d\200=\230\237\"\274\250\222)\275q\0249\275\256%\014<H\206+<\375\021\212;\257\304\233\274\213>1<\307\323\257\2624C1\275\367\037\0226=\030\037;2}c=g\206U\275\235Q\306<\323\371-=Q\177b\275\211l\'\275\";w=V\310\313\274\177.#\275\350f.\275\367\2354;W\352U<e\235\0245\252\"\377<X\252\225;9\223\201=1\035p=(B\014=F\215@=\372\236\213\274\325S\250\273c!g\2756\241\3603a=\325<\241\241\t=fcE=\030\261\r=Xg%<B}\301\274\345\345Q=\030\241z<\344\025\243<\037\361N\274\022\306\233\274\342\320\\=\376\332K\275B`\373\274\321\324\255\274{\330\202<\030\357\247<(\022\213\274\256\354\002<\323I\003<\376\272\014\273\376\355\300<WWh3P7]\274\302\345Y=\271\362\316\274LBX\275\274p\025=k=V<\232(\356<\020\201\355\274\'\3072\275\202G\324<\241\265:=(\254A\275\2443\334:5\216\222\274!\036\357\261\006\326O=n5\021\263\337\370\226\274=G\250\272\024\326\t=f\225x3\337\224\020\264W \204<\037IZ:\235\"\235\274\260\002v\275d\307\3576\202t\271\273\322\301W\275\352{\311\274t\342\032=\350j\306\272Mb\315\274\353~O\275\227\262\\\275\3256}<MJb\275&a\031\275\211\267\037=a\341\375;$\263{\2623\016\304:\030iM\275\036\352\\=\2301*\274M\251.=\316C\320\274\256(4\275\000\'L=\226\343\t\275\365\017\020\275\213\325:=:-/<\315\332\037\273O\014\314\274\315\004{\266\360\344p\274^\023t=\270\235\235;x,\206<\024\223U\274\357\313\270\273\213\217\3459C\274Y\273\324\016\247;\026\317\031=\307\r\304<_m2=\253\374\2251\354-\205<\010\220\003\275\340\"o\274\230{@\274*\373\200\275\255!<9\343iO=\\7d=~ O= (\204\273\267\273\036\275\247H5\275\"d\t\275\270\010\\\275\025\313o<\241\352b=8S\023\274\257G\005;\371\033D\275X\030^\2755\331\364\274O\327%=NR\010<\336|Y\275fV\360<\274&\025:@\243\010\273\314]V:\002h\313\262\371\361\337<]Ud=\r\263\'=\2742\031=\250\000\271<\324\355\264\274A\234n;_\344g\275\216\312j=\234\022\0046((\003\275\226A <K\230\022\2751Va9\276Gz<t\352z\275\251\004\262\264(\010/\275\223\312G\2754\212\024=\213\221\240\262\344\324\354<\261\373\035\275\240\360\347;\253x\0167\245\340\306<\377m6=l\266P=\234m\022\275s&X=\320\205*<u\255H=YJ\r\275\337\'H=\217V[7\023\004\203\275\2341=\2755r\033\275\210\303}=\274\254\261\274\363\331\203\272>\331\030\275\236\006b=\340\250\022=\2625\222;\223\\\231;\317\222\221<%\3608;\320\227\321<\304c\307\264<\273\\\274[^s=\2247n=\272F\323<\273\302o\273\231Y\253\274E\203b=\341\365\t=`\245@\275#\321\270;\220\214Z=N\331\2279\036B\341;\373(\235\274\252S~<\336\364\225\270\217\313\006\266\367\261\367<\201\204s\272I\351,<Am\257\274=\032!\275?\005B\275V\014\177=y\325\253<=\3472=5\010\327\274\302P\354\274\000\25697G]\t\275\243c\005<K\321\023\263\324B@=<\306\276\274\360\211\276\274\017\221\362<X\360\010:\026\231\246\274L\262\364\274\377\354\033\275\241\311\231\2742I\206\267\025\316B\275C\255=\275\376tC<+6\035<<Y\002<GI\237<3\200H\275cA[=H~\261\273>fv=\211\305\255<\010\233\3319\231\326O\275E\324\201<s\301!;\312qU\273\2752\345\274\264\306\210\274\3365(<\226U\"=?@\370\272#\3325\275\303\303_\274mq+\275\3650O\275\240\365z;=t\201=\321\376\332:\370\304\\=\"\300O=\317\210d=\027J\205<ji\000;\244\223\375\262\rz[\274\367\310\200\275\016\225<<\300\324V=\305\263\366;\346qx=~bF\273\375c\037=\263\325y\275\262\330#=\327r\204\274\273\244V<\355\365q\273\020\227U\275\233\021\201;n\351\371;\016\232o\275f\354\021<\2441l=7 \334\263\322c\355<-\034f\274\336\323Q\275\331\332\315<,\264d\275\021\360\350<\207g\010\275vL\370\274\002\000`\274?\213]3G\206J\275\342\275V:\316\232q\275\370\324\013\273\n\321\024=O\251\0256|\0131\275\205\374\346<\260\247\312<\361S*\275\266b\373\274\024\345\330\274\337a\243:TX&\263\035\362\2348\334\014\007\274G\001\2208\216\3758=D\215\276<\332.s=x\r\010\275\320f\035=\211\255\021\265\313s\"4A>\375\274\3207\033;t\225\031\273\374\033C=\240\016 \272T\275P\275\271\252C:\232\275\013\266{ G=v\002;9\263\305!4~\300\231\274ot\224\273\017u@<\317\216\265<P\335\307\260\316S\222\273\344\002\013\265=\264\r;\206\373\277\274-T{<Q\345\031=\275\001\017=o\361~\274\365f\335\274\332\003H=tX\237\274\227\326~\274+M\376<}M\206\274\235\323n=\356_(\275}\215\201=\275\017\234\274\"6F=\016\271Q;\275\245b=\307\016\346\274^\316\t\266)\326k=\223\260\300<=\351\260<\222\035\3214+2d\274V{\3047\262O[\275\320\014\024\264\036bF=\354]a\270Y\265\334<\254\302==M\021\236;\026\371\0025p\026H=\271@\202\275\226\026j<\226^\310:N9\362\274\326\300\007=\342K\0235\344\370\234<\276\345\2447\377\010\231\274yC\014=N\255\034<[\202\0076\324\260\002\275\324\214f=\231\260\224\263\3554.\275\306?N\274\346\243\202<t\317Q=a\216<=l\255\032\275\035S\016\266\013W\326<\342\335\017;\313\316(=R4\201\275\035\374l\275\000\005\366<>\0148\275AH\310<\023JY<\261{\200\275\370\276I=\324mT\273\201fF\272\315|\341\272\025\010@\266\245\004\206</]P\275\230\211J\2713\355\333\273\375\277\202=\3428\231\264\014\323\313\264P\354s\2756\014\234\271\300\361i\275\216\326\377<\004\206#\274=\256\030=\367\257\t=\222Y\2052\246`f=\336Y\r<\020J^1\306\340\212<\215gn;=`]\275\343\321\224<\226\251\\=\t\270\2064j\345\3622b,\333;\341\373E=8\312\231\263\241\361&\275\246N\3758\254\342\200=S^\003=\007\317Y=\002td\275\374\212Z=\306\241\264\274\033\316\246\274\036\033\\3[\025\002\275M\271t==|%4Y\346O\275RX\025=\202M\306<[\303\035:\224\016\323;\244\345\312\272\267z\0256\375\346\252\272\000\203<<\313\314\247;\301_P\274\022\243f<\200\366\t\275\230\227\2169X\260g=\255>[=\314\276\370\2730}x=\213\224\373<\273\212\t=\230\352/2\321\212\035=\312>\2469f\3377\2753\373?\274\213\000\355<\320Q\2379YS\346\274pE\257\274j\265\247\273\227\026\315\272\327\336\n=\204x\260<(\343X;d\222#\274.\233\201=\341\023!\275M)L\275\322\201p<\344\345\222\274/\264n=\343\362q\275\237\220L\275\032jP\2756\265\022\265\354\225I=\372\342\014\2758\031o=\341\032\024=\265\332\016\275\n>p=\241\271Y<\355\232o=i\033\t<\303\242\226\274\210\273\361\274\301\360\016\275\264bA\273\2364\311<B$\265\274\303\t$<W\000\354\273\025H\014=\251\245e=b\330\325;\243\225\001;\341\226\342\274\327\0179\275\311S\254<`\202\023\275\314\266G;\244JL<\033\323F=}\236\242\272\226\000\n\275J\321D\274\254~\2036\305\330U\274\020\3301\275\265LS\275[\315f;}\010\030={}E=F\024\033<r\026\n=`\312\3476N\327\030=\374\306\2053O]~=t7A=\307\200\312<\326\366\272\272\300\274i<\274\205\373\274R\024\016<\377\370G\275\035\364\3233+\22788h\3223=)\357C=\023ez=\245iz={kP\273\361\n 4bn\245\274S2\006=v\002\336<\306%\220\274\362\036\262\274\0164L\2754\216\"\275F\223\305<\232\036\341<Jl\\<\373q\320\274QB\317\273cIc\275\004\3254=\227\34579\246\036\210\267\035\034^:\030\307\266\274\237\226(\272O\235r<\314}\341<[D$=\032\322\201=\263,U;\232}\002=n\204\217;\230\246\026\275\344\363I=\250\226\315<Dg\234\274\256\230\0304/\3319=\316\035\016\275\240\022:<\344\262\244\274&o\310\274W\013\024=\325\244m=\\j\376<[\265\310\272%\021\001<\376\271d=\007\023\026=\021\262\024=\211AZ\275LI\273\274\256E\315\274\2454s\275\3449\t\275dRQ\275\316<\000;\356\366q\274\004\270h=\226#\262\274\n\310u=`(n=~\205(;\212\226M\275M\237\274\274\305\035\3349[\240\235\271\376~\345<;9\277\273\270W\036\270T\235\207\264K\330]=:>k< \341T\2750\"\3215K\230I:\334\201\244<\314\307F<\004J\033=\362\233\332;\035\0164\274\030,0<\330\346\034=23o<{0J\275\370#\231\274\220\353\323\274\035\010\203=\232\354]\263PT\3162\230X\365\272\310^\t\274^y.\274\270\350T=o\270X8\344*i\275w\330\010\275|L\311\274\210\250\024\266r\217Z\275\307m\2547\265\345\r\275\335ky\275\336\177\177=\031a\010\275\353z\"\275\260\th=\374\212\376\274X\313\340\263F\311d\275n\307x\275\n>\345\273A\270\223;#\377q=Y\333\336\274\232w\302;j\202\200=\370\\\026\274\204\243\2272\313\327\237;\273*e\275\200\3251;\026g.\264\225v\034=\017\225\377\265\025&\034\275(jn=MQ\037\274\275\227\036\275\243Q,\275\247pm=\006\325\"\261\335\304\013\275G\276\310<kx\020\274E\342d;\'=\0033\021\330\332;\332\327b=\261\262\376\272\201\341\335;\237\273\230<\350\354\313<\260\305h;\3528\355\2724\365\n:8%\351;\357t\021\275h\364\343\273Cvn9(@#=\014\222\014;\\\020\031\264\362\n4;BN\002=\214\332L;E\367O<\000.2\272\311\033~\275\371\273\215\272\246\331\022=\243\254\231\274&\362\201\275\\\000\261\274*\275\355\274.\207[=o!\352<\335wN\275\334B0\275?\250\226\271E\260|\274a\271\364;\242M\030=(\231}:\215\365\244\274u\3406=~$\"\273\302D\337\273]\345\001:\234HS\273\300\324\261:\317EA\275\332\001\207\262\037\336*=?\005\002\275\005\244 =\003&]\275\0275J<N\347]\275/\203a\261\026GV=2B\000<\234\002\260\264\311\270Z=G\262 \275\247\370\240\274\366g\332<\351/\200\275L\220\267:u\300x\275hS\303;_\233Z=\332\377\243\264\023e\"\275\326\234%=\036\271\341<\315I8\273\214\0309={\252\340\274\302q\243:.[\006=\352\345\005\275~\202H\272\374\312\027\266H\037q=\335\213\230<3\215\003\275\t\202\203=f\353\220\270O\376\227;k\336\022=\345\3571=0\020_=G\261\020;Y:Q\275\251\361\363;q\253\200=:\270\213\274\262\360\n=\217I\024\274p\265c\275\305\305!\275\3208\021\275=_2=4\031\361<\267\303\373<\251,\000\275\342\302\317\274S\nd\275XPV=8\202\211\273\254g\323<\225a=\275\325\214\036;I\311\001=~\017z:o\222x\275\253\2230=\330\007\0234\266W\022\275wL\224\274JnY\275\037Y\007\275##\212\271\272\331\002\273Hr\246\273O&\327\273\346\025\016\275\350\315.\275\335g\273\2738\374\375\2747\353\0136z<\313\274\255\231\037\275\252&\312<\363\334\370<\342\375\236<\340t2=s\036\004\264\035\325\230<WP!=\247\3335\275P~\214\261\202\004\037\275:\305V\275\177\336z\275\270\244A\275\033\'m\274R\251\2248{\350_\274K\215[=L\342U\272\311\211\212<7\336\2055\0023\232\273\353A\214<q\017\313:D\360\200\275\222\265\010\275xY(\275\033\3507\275,F\025<\317\036k\275\355\033\025\275\311\236\025=\266\033F\2718-v\274\326\327\202=\257\0309\274y\373|=\326|\237\274s\000\003\274\217\350\202=\255xS\275^\"\013\275\216\363\355<\354\266\032=\021D\226\272\324\222(\275\234\267O\275\254i$;\252y\003<\365\264>\274\277y\250\273\312\263M\263<\177\2477\t\325\014<\274\211\t\274\245\337\t<\316\356\006\275<@l\274c\244O\274)\357C\274}F\3549\270\325\'<Vi>=-\201R\275\246~@<e\250\274\274\275>\253<\324\207\000=\267\246[\275\327N/\2755*p=I\252\311<:\033\t\263\rX-\274;\3327\275(#4=I\037\372\274,\243}=\004z\263:%\376:\273g)h=\345F\203\275\010:4<\352\333\034\275 /u\275e\206O\274\376\370K\275\337\375u=\277RA=\357\023`\275o\262\004\275\224\237G=9M\007\275\216\332\200\275\233-\246<D\343\356\274\nz\327;\355\263\\4Iu,\275\261\016_<e\251^\275\036\224\327:\316\266V\275\267\311\016\275Y\251\021\275*pQ\274\247\300z\274_4\313:C\341\177\2758\336\354<\354\027\260<\177m\233<.&a\275\177\177\365\274K\036l\275\224\261\271\273na;\275e R=\356\311A\275\314\266\352;\303#\017\275\325{\345<\203+0=\360\t\003=O*\226<H\315\002<C\323\013\275C\363\213;\201b\276\274\010d\006\275\224\265\374\270\032\0344=\2514\361\274\256}\345<*C4=b\303<\275T\212$=tJd\262Fd\225:\267\274e\262\254EB\274*\227\016;\335\2005\274Z\025v\275\264c\375\274\221\000\222<:VR\274\306\371\302;\257\334]=I\370\202=K\271z\272,\t+\275\353BO\275\376w\357\274I;j<0\210B=\203\0075\275^\206\026;\374\275!=T\312r\275\335\027\365<\346\022\244<\203\252)\275\375\035\330<\245\230h;\201\256\362\265\030\335\232\274\\\352k\275\225{5<8\367\273<\317\007\276\273\335\370\276<\215S\230<T$\200<\356\254d\267\363\332W=\010\345\370:|\357)=B\312\275\274\207\003h=\024\235`\273H\324T<\272\237r\275a\203\314\272\207\t\0306\266\020D\275S\237\264:\000\031\027\266E\340\375\265\'\246\363;U\350\334;K\242\030;\3032\026=\217\303\33352k\026=\346:.\275\256\016Z=&\251\275<\260\260n\2759vn=\026\224\017\275\264\207~=\256\307R\274\217\375%\275\216\'\342:\370\212\010<\242\320\271\274_\277\317<6\27223\360u\275;\230\333\332\273\032i$\2756\214b\275\251\375*\274\351\200\203\274\306\273\357;\237\322T\274c\031c;\214th=\306I\0144\016v\023\275svf\275\200)\013\274Zv\t;H\260z<A\240\367\273\362&O\275\226\031h\272\343B\032=\244\020\373\274\237#;9\340\341\025\275t\374h\275\373\024\226\274\343\371\214\273\201\030A\273#=9\275\250\360Q=D\013w\274\311\356\021\275\351\276\203\273kM\300\2741\376E=\205\200\3129\271M\272\274\250t\252<ID\3747\271.\3475l\346\035\260\335\225&\275*\000\317\271\335Q\0101\313\262^\274\270\247\002\275\236|m\274mL1=\371\302\027=n\t\032<\311e\262\274/1h\274x\216\203\275A\303a\275\243\334*<\305k\024\275\306p`;L\233x:\035\t\316\273\326a\025=\n\352\3769\331\350o5\216\241\203\275\316R\316\270\230\267\212<\373\333\276<\244\335\332\273\021\360.=\312RQ\274\360\233\312;|\362\217\274\022\317m\275#\013e=\026m\004=Pt\002\265\004\350\375<\312H\1774\312.\201=1 5\275\327\317u=ZM\305<\250\247T\275\337\315\213<+G\3609\370,\200\275\350,\210\274(\270\007<\253\256\000<\201\344\340\273\362\3570<\023\222}\272\3411\014==\' <~\206B=\237\t\\<\177\331\3759_\224\337\274X\365\233\274\027\003F\273o+Y=\244\344\n3(\t\215\274\201\242\300\274\205~\343\273\230\361+\264C\000\207\274\310\304J\273j\267\2559\305\356\2369z\024\347\274\\\253\0334\364\241/\275\031\365R=\347{\303;\036(o\275!\273W\275\014\3432\275E\222\324\273\213dp\275\022~\363\274(\037U\274\222\343\374<\223\031\002\275\333\034\3138\014\\\252\272K\275\030=\315\321\017=\376\324\234\274\342\204\t3\223\207=\2757w<=\373\212\027\275\003\202\016=\372XB=\000\232\267\274\347o\033\270H\255]=g\222\3578\344*\2074\375\272\3217\002Q\0046\323A\365\2747i}\275\\\016\002<U\344a\274C\276q=A/\333<\256;\200\275\023g\2179%\370~\274\366?\t\275BI\301:\0161\'\275\256\246J= \211#=\257\026\266\263?~\274\263\233\rZ\263$\032\017\275\014\333O=\225\000\255\272\371#+\275\334\006\355;5\325[\2756\275\331\263\0276$7^\026v=\376\206j\275\202\362\177\275\271\313\201=\230m\230\274H\240\034\273*\213h=\276\217\010=\252\356\375<,;\004\275&\235\0374\007Q\014\274\005z!\275\317\310\t\267\003\276\225<\024\2377:\311\250\'=\330\206\242\2631?<\275x\227h=lj5\275\333\032\0239\005\nw=k`!\275FP\371\274*\263A=\273Yg\270\315\322\013\274\265\325\213;\027\373\323<\311t\005<\200A\230\273`iU\275\177\327\r\275\237\375B=\223AY;?\217q\275\250E\231<`\017f=\273co<\363.:\275\277 {\274\365\243\000\275\374\210[<:\361\023\2753\006\360<\232\000C<x\317\221<V\363\\\275\373\3327\275\2478\341\273\\\376E=v\2609\275\004\001?=\272\001Q\275\312\343o\275s]T\264\273\314A\275\375\201J=\312\344\0354\260y\267<\232\264\204\272\002\273(<\305&h\275M\240\251<\"\232w=\267\264\327\273\374g\t\2711\323\355\274Hg\256<\263\242\306\274\020\302\035\275\253\353\213<\313\253\216\274\t\356#=\371M}<+\201\246\274\226\020\227\272\250\322>2\217\222\004\275q\213\313<\312xH\262\025Qn=\2226z\275!L\n\275u%\362\274\236\2001=\204W\201=\017t\357\272E/E\274\271e\034\275q)Y\275\216z9\275S\271\350\261\253l\301\274\237\026J\275\244\253q\275w\250>\273\227\317\214\274x\337\240<\364\3637\275\0345\016\275 4l\275O\263W\273\014\201g:\340\033&\275^)\025=\203\003\306<<\"\036=\360g4=7\031_\275}\3704\275\354a\031=\036\005\014\275\004\020s\275\213\371T=U\266\343;\010@E<\205\263E\275c\352\304\273\002\311\267\274\016\215e\274P\235\t=)L+\275o!R=#*g\275\027\326;\275\000\000b(&\250\225\273/\25123\202\257$\262\223\037%=,\3106\270\317kN\2751\303\001\265\374\261\333<\244\333\"=\214$\r<x\262\320\274\025\275k\275\3270\212\274\274\303\3469\360n\027=\246NN\272\013\265*=\300\261K\275\247\017\356\263\\`5\275k\026\253\272\367\371\221<\263\202a\273\222\010\010:/\231\202\274~\301|\275$t\311;\035\303\354;\266\004\272<\262\305T<\306M/<\200\341C\264\177\243\217<\277\347[=\217\030\014\274Q\022\371\263n\363U\273\310r\22312\240\023\275\\\200\355\2740\337\030\275\270{\225\273\375M\370\273\251\276\244\274T\327\030=<P\"<\027]*\275\026t)\2728c\360\274\300\354\360<\363\250\\\275\341\356J=\245\332\226\274\261\334\307\273gj\377\274\261\333\373\272\327+\350<\374\306\021=\022YD<\235\370\003\275\227\245\3478D#\201\275\251\357\005=\010?\0033\261IP\2750=\301<,H\242\274\246\010\211<B\3647=\235\200\000\275<\240\310:^\205\325<\350h\217\274\'%q=\245b\025\266\200\275\222\274\033R\261<\216\317\235\263\320\324\016\275\216\200\350\274vh\036<\355u\200=\327\324>=\225\2411\275\034a\001=\345\367_\275\234\266N\274G5p\275\345z\030\275P\210\016\275\243=+=,qp\274\356\214\253\274\347B\336;\"\325\366<\205\014y=\305z\325;<\372\226\274[et\263\354\326\212<\304\221}\275\245A\206\274\376],=h\310\2061\2717?=@b\260\273\267\365\355;\206\017\037\275\340J*\274\334}\377\274O\365o=\314n\3719.\0051\275O\363\032=\364\243\345<\355\r6\275\301\202\237\274]\211h<%[\201\275\367\346|\275%\222i=!\311==/\351$\275R\267f=\262\262\2744N\207\031=\336R\312<#\221\3235{\344\347<}Kv\273\357\340\247\274GB\000<_e\343\271\314\227+=\'\367\271\273U\232<<t\340&\275\205&\033=e3N=\235\343,=\275J\017\275FX\020<\255\340\020\275\305\003\345\274\004\303\3671\016\302S=U\305\201\273V\2016\275\375P\307\262uq\360<^\000J=\370\330 \275O\272\000\275v\236;\275v\23091I\267\343<\261\310\2363\003S]<\362@\216<+W\0242\224\377\2054\235\032%=\341z\311<\251\370<=cOb\275\243\034~\2756e4\275\304U\267<UWq\274;v\260\274\320\241N\274\234s\265\274\264/\000\273\225\036<\275\221da=&\327\260\274b\312j\275\342\266\331\274\2267\004=4>#=\246\257\207\264\357|\013=ORe\264\375\033\321\274l\034%\275DX\3149\234\\\024\274\345\211R=<\321\371:{\277\241\274\221\277\311\274R\3771\275\322\352\251\274\003vs\275^\365\r\275iC\3172g\222\031=\230(@\275\265k\323<i\014\224\274\036\201#<Y\"\334<UU]\274X\240 ;\372a\221;P\020\014=\036\235\304:\270\343\251\274-.\240\265\014\204{\274\t\352|<A\315\020\274,)#3\366\343`=\301wN\274\217\203\177<\220\307E=\2376$\274\270)\2179\n$N\275HG\300;\226\357\0106\177\010\206\264>\016\254\272!\340\366\273\2759z\274\325\256\205:\347\327}\275F\217{\275\244\013,\275\371\220\013\275\216\231\241<\215\01759\351-\001\275gSN<\3078a\274`]|\275TN\2132\202\2452=\036e\020\275dy\3424\226\032\264<\357O\246<\033\253\2139\230\361\321;\310\205)\275Q>\020\275\177\351\205\274(V2=\241.\207<\307\377\030\275\336\275\251\274H\\\217<\261n.\275E\257\202=?\213\231\273)F\237\274;\367\327\274\312x\0219=\004s3x~Y=|\031\202=\371}*;\264E\025=\313\253\250\262\220\272\234<\307Y+\275\316OW=\233\035\036\274\367A|\275j,\2735\315>\022\271\232q\303<\257\177\334\2630O\364<Y\033+=\355\355\014=\300R\021\266\213\336\216\273\253\0062\275\3402\344\274\020\334\246\274\204\261\245\274\"j\370\274 \006\003\265\347\0363\274\226\360(<\223g\236\274%\326M=\220\210\3269\202\237o\275n=!\275_\372\230\274v?!\274\305ZV<\312\036\007\274\007\271.\273\321\343F=\242B\036=<0\231<X\377\211\274\270\216\210\270\343u\266\270r\243\327\274\227Q;\272\227~P=\036a}=u\2705=\224\207}=\341n*=\240\342!=:\023\261\274\257j\2129\335\023\010\275\224r\'=#wr=2\036\364<\036By=\030\r\251<<\301}<\364\330D\264s;k=Z\251X=\303\334\200\274Ri\021=\333r\002\274~\016\336<\314\360\211\262\2249\245<\300\356\033\275t\351\325\273\245\254\025=T<,\273\210w|=m\231\365\274\003\034:\275\0241\033<2\363S=?q;\274\205\002q<\306vF=o\205R3/\241\014\275\250\366Q\275\362.\3239\364\276\314<\357\366\364<\315y\006\275\220\310\223\273.\202\223\271\260\014\277\273\014\244\247\274\026w\223\274h\306\307\2627\367\255<\370\256\324\274,\0274=\365\250\017;\242\352\274\274\271\232n\274\316\320W4\302\205P\275\270\255c\274\342\343B\275\365\261M\274\260b\313\273`\'\361<\214\265\305<[\013\320\274\253\0135<a\222\030\271\007\3771;\336{\203:\253j\377<\000\327j=\374|n<\305\274u=\036^\201\272r\000\343<\021yr\275\207\260\375<\264\204P=Q\246*=\272\243_\274zc(=\215\030y=\320\215F9^\246\304\272!\312Y=>\2114\275\323\324\010\274\367\315R=d|\0016\232\244D=\036T\320<\330\333\037\275\341\374\204\274\2728\350\274\244\257\311\274\013U\253\273X\023:<c8/\275}\330\032\275{*\277\274\204\331g\275\303\375 \274\343r\342<\364?\2130\210\262\374\274\324t\t:\324\317\023\275\325ID\275\342s\377\2744\265m\275)\263i=\205\261\326<\350I\013=\247\004\200\275\324\354\265\2741EK\275\334\306\261\274\314A\260<\361xH<\350\307\274:\030/m\263\205\376\243;\031\351I\275\331\333\346\274\246\305,\275\326V\255\274=;\331\273\325\375\t6\300-\314<\023\3232\2757WU=\330.\004=\030G6<\301\346i=Yb0:\262\246&\267 \371V4\026\362\\\275\252\256Y=&fz<\203,(\274\273\226\220\262\003\237d\275\307R\300<\2423|\275h@\361:\237\226^=czY:\321@\024=\231\330\202=\325\351-\272\205\216\361:\2637-;%\341\230\264\355\254\200<\346\321z\273v\214*\263r\203?\275/\333*\275\315\035^\275NO\270\274\231\n\361\2721\333\216\274\037D\204\273\204\364\004<N\320\340\274N\356\005\274y\241\021\274\016\303\261\274<V#=+G\010<U]=\263Qal=\322\367]\274\303:\211\274\223\214\331\274\252Q\3772#\302\006=\002e\2475\177\353\301:\225\242\3048\002\231_=Jou\274\376\231P\275\333\"k<\020\215@=\217\324\252<\004/\201<\003\360Y\275\021\310Z\275m\342\203\275\3252\n<\253\003Y=JY\206<\264Lc\267\005\223\231\263\300pO\275\256\305_\275\237\234 =\272#\267\274\210\215\026\260\241*\347\2747R-\275\324A\0175~3\t\274\242v~\275\360\353\2378T\004\001\274\370\256\376:{\030\256\274\333Q,=\226\036m=\232\224\377;]\201\037\275\344x(\273\035_\226;\371\321\023\2758\315\200\275\036\216?=H\027E=\000T\316;\351\242\033\275R\324O\275\316\321\r<o\260\200\275)9\367\266\232\n\177\275\034\\y=\237Y\352<T\320X\263O\360q=\306\257S\275\243T\2139\177e\222\272\207\034\263\274\202\023\250<\213B\306\274\005qX1\300\242\034\263|\344\'\274\333]!\275*\327\"=\312\270R\275\r\337\325;\272n\363\272 \244\266\274\217\247<=1\272\202=:\326}<\221\213\035:Ab\242\273\276\315U\274\247\323\':\211\234i\274\367\374{\273\025\001q\275\311\370{\275\300\002\374\2748d\006\273Bfk=\317\035\335<\344\035\032=\006\324%=\006\274\252;qd~\275\245\023\277<y\300\305<\264\004\014\266\330\303\031\275\363\3660=\275mh\275H\335\n\271P\007\n\273\243$\2009r\364\017\275/\314\213\274r\370\305\272\301?/=1\222\376<\374\333\253\270\037M\211\274\265\202C\272\374\326\031=\026\0031\275\250g\204\2663Nk\275\244s\020\273vP\234<z\200Z=\t\337\265\274\336m\010\2732\325k\275\001|\341\273J\354\t\275\301~\273\270t\353 \275\232\030\025\274X[53\325\255\276<O\346\023\272\221\022C\275MVk\274P\225\'\272c\255\274\274W\301<<\264\"\3441\007N\031;\007\261S3\374\204\346;\347\353\'\275P/\006\266\361E\357\274\213\343~\274\027>\202\275\024N\'\275E\020\030=\252\371\002\274\226:\346<\207f\2449\177\361m\267\215\276\203\275c\313b=\3315\327<pz\234\262\302\337\0337?&\014<[n\255\271\225v?<\3564\335<\301\366J=\300\246\202\270\330,-=\320x\006\275\363\312%=8\245\3702\376P\3779ml>\272\256K\316\274\353\275\006<p\336\314\263\207\350\375\273\244\033J\275\344r\371\274\333%\3319\177`4=\202\014\025=\007\246\202<\312\305Q\275\014x\356\262lr\203=\366\364\231<6{\3679\270\300\2061y\250e\274\247\331\2259$;_\275B\333\363\274\344B5\275\037\221F\275\035\n\311< K\312\274\266\026B\275\032\216\022\275\n\264,<\341zK=+ +<\350\361 =^hB\273\256\024\026\273\3552\031\274\361\034\3655\027\3513\275\350\273\350\274\363\214,\264!\353\t\275\021\033H=a\366\300\274{?o\274\264+\n\275\374\314\'\275\224\"\203=\014lj=F\367\272\274\033\316%\275\355\033\334<E\177\375\274[E\254<g\336o\275\006I\273\273\201q\213:\300+%\275\037J\017=M\310\245:\210\347\375\273>\355,=\014\273U=\000\273\024\266\267\230\274\274i\262P\275n\357\022=\037\376n=\337Wm<\245\271O=\3439\016=\344\'Q\275B\3518\275{\242\021=\344&\023\265}P\366\274a{\304\274\202\2231\275s_\004\263\251.K\275\263\316\217\274\216\354\n\275\201\213\3343i\236\202\275&\'.=\272\226\235;D@01~+#=\327\027\335<Y\320\331\273!F\361<\332\227\031\275\324\237E\275\354\023d\274\210\217C\274\230^?=d3\027=+^Y\275\004\312\010=\343\325\023\265mN\2213\233\200e=\006p\250;\202\367\034\2745\255<\275\317\370h<\353xW<]K\037<\270\201\022\275\377Q\316<\342\345@\275C\270\254<\236R1=\273\205\020\273\304\223\215<L\212\237\273\210\230\275<Z\257\3122RMj=\007l\030\274w1\375<\304\273\372\274\245\250\217\266\002i\361\274\005$\200\275\317B%\275\\E\321<G\331z=\264\200\252<\017H\303;3\263\313\274\035\356N\274J\2766:%\355h\273)\027\370\272\r\223R\27575a=\033\333\2222\001\365S\275F\205Y=\036\323e\275`\347\0175\322\025\3353\327\216`=AV(<x\002\247\274[ok;\017bd<\t\326\024\265h\355\3633\351\307\356<O\252%\272\233\002r=\033\301~=\365<E\275\034e{\275\323\tv=\264\353W=\310Q\377<XkW=\246\026\264\274\205h\213\273\322h\025=\004\245\004\275V\266h=1\311\004\264n\031\353\274\243\221\026\275\266I\3723u\205@\273\262\204Q9\306\277\2413\024;\234<\340 r<\206\027\232\274\265\363%:\rP\233\273B)\2172\034SC3\314;\033\275u\370!\273&\360u=\200\002O=k\332Q=1v\"=rN\366<\342R|=\201\t\031\275x3W\274\367\332\371\274P\031\034<-W\374<\037\277\306;V\026\257\274\"k\370<t!s=\310|E\275\235\016\2675\224\361\312\274\211\363\r\275+\336\n\275\327\2556=])\253\274\303\274w=\245]\037\275\233\237\270;\2052\177\275\2215\037\263^]\2613dd[\275\307Y\325<8\316?=\316\034\030<<\275\251;\323\234\324\273B\370\215\274\3232\335;\275\200\326\263x\006\240\263\022l}\275\275\202B\275\261\014#2\330\364\3503\230\332\300<o+\252\274\215\004\203\275R\372\2245\303\203\202\275\323\004Q\275\233\357e\275\3107T\275\276\345!<\350\332\242<<9\234:=\225\212<\301-z\275\250R#=A\340,\274\022.\355\274 \207L\275\'.\332\272g\2037=V\344\371\274\007\357]\275^+>\272w4\026=_\251]\274\025M\330\267jH2\274\2571\030\274l\336\034\275(\216\036=\376\227N=\351w1:\000\253\007\272\257\377\325\274Mj\003\275\261.0\270\352\347f\272\022\262)\275\024\251\244<\237k3=\204\343d\275\230\232\364\274\324\2236\272\371Ze\275\\;\316<\034[\247\2747o\224=\366\203\205=\357\315\013=\370\017f\274\200\3350\275\220l\204=92W=Q\305\035\275\002\344\224\274T>I\275\247:\223=\205*&\2757\2173\274\221\334S=Ol\223\275\302\033\331<\257\227\235\272\324\272\233\2757;\272;\r\216\244\275\253\320\005\275\377\244\216\275\224^\177=\221c}\275\3574\'\274W\212\002\275\250\352\251\275x3\202\275\005\017P\275\302R\256=\315c\033=\n\224\245=\t*|\274\221\356b=\241\223\256<\261\351\204=7\035\201\275\005\263\005=\235i\224=\363b\261\274\321\310\216\274\247U\216=\222\3021=\364\317e\275\210\2472\275\366_\207\272\032\036\006=\211\324G<.\217\253\275\323t\216=\033yW\274\220\361\251\274w\265t<\374\n\004=\026}U=\210\235\002\275\204\014\021=\033e\016=\342uu=\\C\024\275\365/\227\275F5\017=\246\006C\275\245=\204\273\237\366\007\275)\331\217\275\260\'?\275\360)\363;]\222\320\274\313\234\206=*\251\251;\\>r<\210\254\225\275\314\006\216=\347]\322\274\007_\'\275\275C\022\275,9\203\275\003z@\275\006\"==\244\031E=\005\320\345\274\003\200\010\275}\352\200=\351\345\251<g\032\315\274a\345\243=`\3408=5\307\201=\357nr\275bT0=\302<6\275o\376\350<\027\0378<Tc\232=\331\002\375<\023\360\365<Df\221\275\321T\243\275\334\251\256\275\213\260\233<Z2\037\275\373KL=#>\177=\345\014B=\262mt\275\251\223\236=\004\370C\275\177\315\234=j\324\252=\331\037\211=Sn\316\274\334\271\270<\302\201\243\275\200T\262<\242p\215;5\202B<\272\301\214\271\03784\275\002\3316\275\204%u=\315\322\356<\254\327\'\275,\265v<_\230o=\032\274\232=\261&\273\270\355\310\360\274f\266\211=e1\317<7\032V=\354x\031=bV\220=\253\021I<\247\000r\275\225(>=\347M\020\273\244? =\251\320==\203\'5\273\305\272i\275\004\330@\274\264\013\254\2756\220y=\260M\025\274K3!\275\221\341\232=\010;\036\275\022\272\002<\006J-=zY\257<)\311b\274:\002\251<`\362\037\275\032W\321<}}\203<0\252s=\263A\341\274x\224\300<y\262\255\275\022\251\217\273n\252&\2758\220S\275\356\367+\273\016\266\201=Y\272\277;\004\366\361\274\032\366\224\275\315\004y\275\242\270\257\275\3501!\275\031\231@\275\360\267\210={\353G;!\330)\273\231\210\220\275\371\256q=\233\317?=\263=\025=\224C\301\274\275\247\312;\236\236\032=\230\2616=N\266L=\331\370p<-,N\275u\310U=\n\026\345\2733\3759<\264hY\275\231Tp\275\201]u=\270\022\330<$\267\326<\323\334\352<EW\236\275\241\355\203\275cBT=\210\006[\275?\262<\275\274_\'\274\277\304\244\2731\277{\275\362\273\312<\234\335^<\3409\271\274w:\013<\335\236\265=r\007\220\2756\031$\2756\237\322\273\0040z<\036\207!\274K\026\221\275\263\022\205;8\r\032=\217\352<:\332`*\275\264bC=\315{\206<\211\0061;\2417\270;\270\202V\275\371\352\036\274\\}[\275r\014\210=\n\361\255\275\365I\213=\n\367\013=\345\371\211<\017u\211\275`{w=\031;4=b\020%\274\345\016\212\275\3459\261<f\215\021=\017o*=\036\262R\275\211\376M\275\3775\256;\266\355\\\273\203P]=\224,\254<9\302k=\250\252\227\274\261\225\271<L.\r\275\322\204T\274\330\252#\275\257.i=\037\334\242=4\256{\274\376%>\274\n\233\201=\r\206d\275\250\347\304;\017\277j\275v*\211\275\206\213a=\002\'\324\274\314\311\031\274\206\372\245=\002^\355;\016\247\205=)H\010\275\025\347\017=(k\226\275\313\233\205=}\366\034\275\334\243\243\275\230\350d=\271\205\315\274\367\013\226\275s\006\205;Vn\240\274~\201\242=\010%\214=\277\242\372\274x\032\035\275\224\222s=K$\224=\3320\236=|l\224\274AT\222\274\346\010\221\275\251@\004=\364\233\275\274G2\270<G\030\245\2758\216?\274\341\271\245<\222\321\033=Gdi\275\000v@\275;\335J\275\350\360f;\216\254\207\275\272\210\225=\271XB\275\371\371\002\275\350\345\177=3\221\211\273\002=c= J\001=V6\236\274\017\301\271\274\245H\233;\262\243j=\365\331\251\275\330g\222\275\275\035?=\321/,\275\031\245Z\275\313\371\362\274\002$\214:<F\202=\272\tj\274\002,\'=1\301\231\275\221\263P\275\271\222\271<\254c-\275\2765%\274x]e=P\364\221\274\332\223\017<E\374\001;1\244{=\353\362r\275\310I^\275\206&\222<\231E&\275\325\026n=\205\221\220=\301\t\221=b\033i=\307[\230<a\262t\275\346\006\244=\025@\213\274\264\347o\274wO\311<\357\n[=\222G\036\275\277\"v=\356&\326<[\330\371<#_$=\235%9=Y\333\205\275\224 J=)\032\233\275\205a.=\265{\336<\204\235!\273O\361\322<v\020\t=\212\310\231\275\202\344Z=\341\363\272\274\2214:=\333\224\221=\311\013\334<\335\030)\275\230NP=\334\345w=\257\220W\273\315\007\315\274\367\220\265\274\240|\000\275_(\217\275\333\234\311\273\247\307\311\274\304\232\213<3\2012\275U]\365<\244\315\203\275\"\305\033=r{\350\273\247\252\244=\212\273M\274\004\037e\275p\3332\275D\232\306<\337C\n=\037\300\263=]\334Q\275)\346\267\274(\034\003<Ij7<\342p\220\275\313[_\275w5\213\275\366\367\377\274y\353\274<\323\204\203\274\t\256p\275\261p\256\275xm\241<\351\276\227\275|\242M=\2537\233<L\225=\275ht\013\275@7o\275\026Z\342\274\203\223\001=kPj=\336\024\216=\300m\243=\312\305d\275A\366\326<\247\332\232=\207\365\337<\027\207V\275@%d=\212\370\216=9n\363\273\300\254\263\272>Bk<\262\205X\275\322\r\t\274h\017\237=$W\305\274\367\274\242=\010eB\275\017\366z=\365\341m\275}\375x=&E\001=k\023\243=\216\267\373<\226g\231\275\351Z*=8rB\274\235\n\006\273\326\327\021\275\320\216\360;Y\211\014<\257\261,\275\224:8=\371g\214\275\214\rD=*\237\350<-\000\203\275\357\254\214=\017@\336\274O=\335<oY\366\274\364\365\201\275e\3723\274\246`\\=y\274\354;\246h\215<1\nS=\363H\003\275\203\307\232=eN\255\275\331\221\254;\266\322\003=\3418\n\275\320\313B\273NG\221=\211ZC\275L\003\213=SP\315\274\031\213\231\275\317\337G\275?\203==\030\262\202\275ps\032=\336#\177\275\375\022\221=`\016\013\275\330\274\210<R\357\226\275\256\324~\273\310\030\005<\n\224\247\275\254\000\373\2746\037x\274\246l\234=\003\2701<\027\320\024=E,\235=b\326\033\275\201\376\215\275\335x\217\275\315=>\275\371\007\350\274\304\027\246\275Z\"\224\275\002O\214=\356\340\207\275R/\241\274NA%\274$.@\275%\231\207<\335k1\275\"\262\216\275tA\203\275-\003{\275\2379:<l\216\'\275\t\221\013=f\022I\274N3\210;,\324\261<lt\207\275\202\300\323\274E\360\210\274\275\220\236\275\257ko;\207\321\335<\\\240\245\274\322\340T\275j\224v\274)\231\200=h\203\224=\014*\265\2753\344\226\275*KT\274fX\232=\212\367\314\274\216\261M;\316\342l=\244-\250=\r\002\002=\214,_=\2630\236=l\374M\274\306\024n\274\334\304\220\274\262\326\233\273\337+\217<s\305\220\275/O\013=|A\254\2756\363\233<\354\010^\275ko\233=\365\213\212=L\227\242\275*6\343\271\030\266b\273\264X\270\274\271\n><\037\206\231\275\346\230\024\2752\217\240=\325li=\n\025\237=q\307!\275\2504\246\275X\315&\275\031j\311\274C\256\250=\263\2316\275jF\310<\261\224M<KtD\272\033\251\225=\201\305\000=M\371\224=z\237\323<\214\201}\275/\226I\275\224\371\260=\364\366/;\023\310==\335k\r=<\334\204=\206\277E\273\345C\237=\010_\230=\352u\032=\260\262\363<\033\210\317<\265h\203\274\201f\252\273\321>\231\275 \036\235\275\375\017\202\275W\372\364\274\017\262T\275\001p&\274\344] \275\326\304\376;\240\275\242\275\334\233K=\273L#\275M\3232\273\363\233\252\275\006\021`=\342#\244<\016Kb<\302\214z\275\376\036\204<0\017A\275gd \272\261m\235=\332\372K=\227\207\227=\177\n\241\275\353\302\210\275\202\t\001=Oq>\2754\004\205=\271\n\201=\031\326/=\334\3141=\370\207=\275\200@L\275\216ZD=hG\243\275\221\2458\273\313\311\321<\320\264\210\275[4\307<j\272U=2\267\206=\310&/=]\306\347<0\202a\275\347\334c\275\205\225;\275I\246\241\274\007\216\365\273UL)\275\372e\243=\357p-=C\014\211\275FA\257\273\277\021\350<\317X\214=Y\226\215=\253\231\243\275\232\243/\275$\335\313\272\254\010\260\275G\264\320\273>l\235<\\\213Y\275\001\271\\=\255\210\201=\321!:\275\0204S=\030\314=\275\353\217g\274\345{+\275\204\215\271<\n\264\220=\320\033\2739F\\`\275O3Y\275J\273\322\274\1778\217=\000b7\2758X\016=\333\255\205\275k\r~=;3\227\275\362\304#\275\234\007\240\275b\220k<\324\274\017=p\201m<\336\203J\2757\325\233=y\002\255<\224\310\216\275\371\247\355<]\255\236<\322\214\226\272\031x\026\275\365\266\207\275\351BI9\332~;=\371\377S\275\223\020K=\305#\241=f\312h=(\217X\274\275\245\330\274\036\306\031=\230\321\253=\023\177I\275\3069\311<\026_\234=b\221\310<\234,\377\274\007\001-=\213\021\211=\251\357\307;\376\013<=\325\321\001= \022\314\274\"f\236\275\252\215\205=\013\242t\274\254\014\032=\303\274+\275\344{0\2758\365\206\275\301x\276\274\340\374\376\273][\226\275\206\262D=_qP=\357\030\277\27446\240\275-\360e\274\001n\212\275Ca\241<L\014\016=m\030\t\275\3657n=\243\312Y=\362\346\224=0\3551=-U8=\377\321l;\320K\230\275`\337>=C~X\274j\354\364;I\204$=\201\317\214\274\207\224P<\226]z\275\312\331j=\026|`=\rW,=\243\0145\275\324\376\242=d\303;\275\262\026\253\275\035\206\214=\016\251\233\275\240\035\220\275\226\211\236\275e\250\227<2\313\315<\334\255/\275?\323\353<\257\224\004\274jO\030<\376\023\230\274\264\nm\273;\3033=c\346T\274\222\375\230<(\303\247<P\010_=`\372|\27454\005\274\273l\005<\0242\254<\224\376V=7Ay\275\240\013\006\275\007\336$\275!~O\274 \344\243;\305z\n=l\020c=&=\007\275/\350\234\275C\275\217<~:\365\274\200\204\224\275t\362\203<=\226\205\275a\035?\274K\342k\275L\232\237<B\242\204\274W\016\022=B\347C=\305.\267<\3157\217=\205D\201=\253oQ\275\350\027\226\275\342f\224\273NhE\275e\343\211=\270{\024\274+7k=\236g\211\275;\223\362\274\353\376\033\275M\256\245;\022M\213\275X\021\256\274\306\366K=\361CK:\353.s=Az\214\275M\361;\273,\326\007\275Pc)<le\225:&\243\345<,\315\225\275\232\003_<\201r\260\275t\326\355<\'\263\237\275\005\203\214\274\371\325\207\275B\216\242\274Y\340\213=2\316\232=\201n\260=\375y\214\275\t\242\250\275\224\030F\275o\005\215\275\343\313_\275_s\265<W\376m\275F\177\202\274Pc\222=\303\000\231=\010\261\221=\321\3639\2739\000\344<OHw=\345%\205\275>\0352=x\220S=\276;\203=\2602]\275\026[\217\2757\356\023=T\341\236\274\201H;\274K\273\346\274\301NK\275\014m\306;3lR\274\177\t\243\275\255\001\223\274\217Q&\275{\216a=\021\005>\275\374\221\242\275g\226\253=\357\000\202=\357\330\345<?\3642\275\276\301\227\275R\242\023\274\3620m=\202\212\301;\027hz\274r\305\312<ag\311\274\333[\344\274\014\353\204<K*\253=\310\302\220=\363+]<\304\240T=\260\275R<\035\336d=\264\376%=\005\350\203=\3368L=\302\254\265<\220-\245\275\2737\227\275\203\270\220= \277M\274\240b\315\273\334\215\277\274D>\274\274\224\273_\2744U\030=PO5\275\312\275^=\371*\367<]\307n=\332\202\247\275\300\227\336\274\244\237\206\275\361\370\253\274\276\035[=[\013\022\275F\026\023=r+K=@[\223=\250\307L=\345\017f\274\352e\006\275\232D|\2759\\\010\274\262\024\233\275\031\352\205\275\277\"\203<5\2047\275<\313\020\274\245E#=Q\300\013=\025\272\211\275mx\212\275\344,\317\274W\322\225\275\207>u=*\245\257=\237\207\036=\356\342\224\274\025\320\200\274\330j;\275I(\005<\013\230\363\274qiW\275\331\225l=H\221;<R\301\025\275\237\223{\275\222\214v=\t\033\017=\035\314\277\273\343\317\232=W\3278\275\317\307P\275xGZ\275rS\233\275\240\341\006;\"\374\210\275x \211;\211S\034=;\372\371\274\262\321n\275W0\255<\333\026\330<\362dp<\2720\327<8\024S\275\257\337\264<X@2=\3065\226\275\375\373\230<,\342\237\275\200\376\305<\363\214>\275j\013\222\275\210\216\365\274.\366\216=\222\010)\272\337\375\023=\017M/\275|\231%\275\265\014}=%\302Q=\n\352^\275g\\?<\026\\;=\000\271t\275\244;L<\250\236\031<\275\2539\275YC\307\274\004u\235\275){\016\275\037aK\275,;R;\373\334\232=\360\231;\275\277\335D=\260mx<\010\014\335\274r\260V\274\t\376\024=\305\207\215< 